BEE52A61
BEA26945
BE4876A1
3C3B6086
BF3708D7
BF23A492
BD71E1D5
3F3367F5
BD6758C3
3CE77C73
BE8F4EC5
3F334BF9
3DC10EF8
3E627E57
BFD80EEE
3E8C0906
3F07AAA9
3FF0AE8E
3F525205
3F2FB4D1
3E13174F
3F6DA2C4
3DBFF1BC
BE04CDDC
BE361B15
3F94194A
3C829994
3E4FC3A9
3F85B516
3E0A7FDF
BEEB28D7
BF8F6C58
3F59F66F
3F227931
BE9A3347
3E7C6734
3F3B84ED
BEBF2629
3E36AF59
BE9D0E94
3F0DEFF2
BD4BD5BA
3E330727
3E97AEAE
3D9CBE5B
3BEEC332
BE999EE4
BEF6AB0B
BE78DF91
BFB29D07
BE86B4C2
BDF34756
BD9C2149
BFC2FFBE
BEB9856F
BFC6E904
BED46CC3
3D7AEF22
BD5DEF2A
3EC63344
BE8EC596
BEA42686
3F2D9747
3DC5E29F
BF97F5E0
BF97A6A5
BE8B0D6E
BE824067
BEE97124
BD68B023
BF13F8E8
BE25DD27
BF382E14
3D20F74C
3F18F4A4
3F7D98D2
3EB37517
3EA8C1E9
BE9EA652
3E9C93D5
3E09116F
3EE2EBBA
3EA5BE99
3F03A4E8
BD11F0AB
3F2B288F
BF05803A
3FBE25C6
3EA547D9
BF5CCBA6
BE4A4111
3F8C2455
3EF85467
BD796465
BF5AE321
BEC6E02C
3F3ACE07
3F98319C
3EBF7536
3F47002F
BF16A93D
3F03FF09
3EB9E6CE
3EC247A8
3E8E658A
BE0878C8
BEFFA168
BD5FB8FB
BF3D6F09
BD21EB1E
3EA5A494
3F68A33C
BEF3195C
3F49D09A
BF83FC6C
3F343E68
3EC66B0F
3E6C3978
BF377808
3FD97518
BE19399B
3FC4D25A
3F8AEB3D
3DEC32CF
3F05E638
BDA72701
BE6A844F
3F43FFA3
3DB33701
3ED0E775
3E19B391
3EFD0D1D
3F0E9D2A
3E799F43
BDBA8309
3E4D61E9
BEE3FD56
BD1E4CB8
3DB0C209
BE987DE7
BCB18191
BDAAB66F
3F45CE21
3ED0C1A5
BF840B3B
3E7DCB75
BF12AEEA
BEA5A816
3E9B868C
3E069B6B
BEA361BE
3FC0FB30
3F504420
3EE2C5E3
3F801EB4
3EA418B3
3F14B372
BE1E0986
3EA08558
3EE7ACAA
BEB5E78D
3F47FCCC
BD91A01F
3E992E9F
3EA5FA2E
3D3149C2
BDC7BEDE
3F2E7A61
3E197EE3
3D21CCE5
3EB23217
3EE1C16A
BEF68070
BFBEE7B0
3ED49969
3F66D0CF
BF578E9B
3F3B1762
BE2A97A2
3F2636B7
3DCFDB13
3EF2ACC9
BE85F40F
3FC83CCC
3C94CFC8
3F87FF4A
BF1A3B14
3E4A5DE4
BE3C46BF
BE843396
BE9537F6
BE9F5EDA
3F31B358
3EA64AF2
BDFF3709
BF0E4653
3F8D71E3
3CB3E3E5
BD0605CA
3F5A9D26
BF88D1DC
3E575930
3E5CE2F1
3F6DB029
BD1E4982
BECF6B4F
3D078FFB
BDB3FBB4
BF8773AC
3FB9654B
3EEA7294
3EAC2373
3F064ECA
3E0D414B
3E465973
3E8F2F8B
3F0A9511
BDA4082A
3D00737E
3F34E6F7
3D5FC598
3EB3D784
BEB63E6A
BF7DC170
3FAC95A6
3F6EC0AB
BF26F848
3EEB1F4F
BE9F5E90
BCB1E9DF
BC3F047F
3ECA5854
3ED4DAF1
BE798D7A
3E865B25
3EF36A35
3ED78967
BF92DB5B
3E6F22E8
3F71A5C0
BE8861BF
BDBAA7B3
C051449E
BF31AE99
BEE08AE7
3F47F235
3DBC24AF
BDEF3663
3E61A408
3F9AC991
3FA0DE62
BF71D415
3F2744CF
BED226D2
3C151AB4
3E50A986
BED544B1
3EC62F05
3EB99976
3EBCC967
BCA2D753
BE2FE5D6
3E3C09E8
3D7E7C0D
BDC47BF8
3B9CD4A7
BDD53B3B
3F362BAA
3F148C76
BE840955
BED592BC
3E63FDEC
BF5A7EC3
3FBC97F4
3D9DC0CC
3EE44515
3E3C5808
BEA86B46
BE5836B5
BEB892F9
BE17F766
3E9930EF
BEA5E808
3F59D0E3
3EC48483
3CA74189
BDC289C6
BECA56F3
3EF45E70
3ECADA52
3EB0F542
3EA51385
3E92DEEA
BD830122
3E66FABD
3EC873A0
BEA3F37E
3EA5B04B
BC3C6891
3E80CBB6
BD827A61
BF16759F
3EAF1ED9
3EFC44B6
BECE105A
3F295FF1
BF711158
BE77F8E5
3EB7331E
3E07499E
BE3387D2
3F44F8DD
3F00D44A
3F317BDD
3EFDF75A
3F099963
3F15565B
BE5F7C4B
3E8075E2
3E7B195B
BE0CE590
BDCCC03A
BE35B40E
3E28B81F
BF337A74
3DCB3788
3C412E0C
BD2A125E
BE700CBC
3D1265FD
BE30DC4F
BEFA5ED7
BC88289C
BDCCD855
3F863B76
3F341DD0
BF74D8B8
3CF21CAB
3DFAC16A
3EA9D784
3E51D526
BD849BCB
3EDD5EBC
BEB97300
BE9E762E
BE7CBEFC
3EA51291
BE205CF9
3E7C8DCB
BE7C8255
BF8F105F
BE98F32E
BC4B0300
3E8D615F
BD3DEAA2
3DEBEC16
3D2F0580
3E48F280
BE88EFF0
3EC34DAD
BF0F3808
3E4CD95C
3E0D8A2A
3E425BA1
3E3BDFD3
BF0A1606
3C704CA6
3E9F1DB8
BF99DAAA
3EB2BBEF
BEEB02A2
BD21C4A8
BE4C5E1B
3D9127D9
BE48791A
3F97E43C
3EC17CE0
3F089DB5
3F1610F4
3F0E220D
3EE5D4E8
3C331E46
BF08B4B7
3D7AAB47
3E939847
3EF3A703
3EC9B222
3DA8BB27
3F46E291
3E2DA595
3C13FF44
3F03BDBF
BF93269B
3DE5864E
3C2FB7BE
3F103D7F
3E2FC68C
BE2F5FB8
3F2FED6E
3E4CCA26
BF33F355
3F3FE5B9
BD972296
3E85E1E6
3DC0EF5E
3D227409
3DFD8AB3
3EF3BC64
3E86733E
3EC4641A
3E1FA593
3F6172EB
3F0344B6
3DADAD31
BEC716DA
BE95EC88
3E8C027B
3EF0A0DE
3EC6D824
3F53B177
BE9AE12E
BCD1A4C8
3DC42E28
3EAE232E
BE71DDE4
3E83CC0E
3F05E0CF
BEAD2B0E
BDE80CBF
BE7B30CF
3EBABB4A
3FA434E6
BE376263
3F7B3FDE
BFA38D9E
3EC367EF
3E6629B3
3F093BCE
BDDD7F9A
3F95FDC7
BCDC385E
3E03A9A0
3E636B43
3EB4491A
3D8D470B
BDBAF3DE
BE4C0C95
3F271F3E
3F53A4E7
3EB0F124
3DFCEDAA
3F308B4B
BDB7673C
3E97616D
3E679912
3F32049D
BE7DA6C8
BEE877F3
3ECD8076
BC04B694
3E4E1F69
BEC943B3
3F49242F
3F02DBD6
3D946A32
3E321936
BF2C974E
BF707B78
3E936299
3F396126
3E109809
3FA24EB7
3E216DEC
3F0CB37F
3F7C4A97
3E7C8733
3EE10B31
BF0F94C9
3D1C1D3E
3F55ACC2
3EC1CA1B
3F25C7C4
3DC37F89
3F9AA36D
BEB017F4
3E2474CE
3F04B87A
3F329FF0
3EDAD9DD
3C10FBB8
BE64093E
3D47EB95
BDD8EDDA
BDA0F49D
3F260C3B
3E9C9795
3CD3E583
3F2A0F3A
BEA80BC3
BF2562A5
3EAD7562
3F491CE9
BC8150B2
3DFB4370
3E7AB5B8
3F11A373
3F967E16
BE7D2A2A
3F12EE4B
BEF148EC
3EDBC9CF
3EBB9278
BD8AB17C
3D89D997
3E0C8AC6
BE4E55E5
3E1A47B5
BED05705
3E2DFDA1
3EF46587
BF497BEE
3EC7E2A4
3EB1375B
3F840537
3EF0622D
BE7D74E4
BF07D4FA
3EAB7348
BF121185
3F650785
3E86A102
3F189E3D
3E9BE6FC
3E1E0602
3798ECB8
BD8C42CB
3D101FF6
3CB4182D
BE79DD31
3EF3B249
3E6818A9
3E14D241
BE9CCDEA
BED5E470
3F47E8E6
3D367D9A
3C4DC2AA
3EC6EB1F
BEAB9C03
BEB14F74
BE24947F
3F1AAEE7
BF184BA7
BE0B2C0D
BD318579
BE928B1A
BF2E4847
3DFDA3DE
BDFAE76B
BE75777C
BD29A14F
3F917D08
BF0E6EF5
3E6392B3
3BA65FBD
3ECA4999
3E670DEE
BED83271
BE42E280
3EFED7C7
3F15DF53
BF09D19E
BE2B62AE
3E2D70C3
3E322B01
BED164A5
BDEDC12E
3F1750BA
3D9F7EEF
3F10EC75
3C948970
3DC9A906
3F708455
3F5DC5E8
3E7DA12E
BE19F3C3
BF589138
3BB063D0
BE68619E
BF2B0279
3F75A5AA
3EEEFBEE
3E27C6FE
3FA37930
BDF28B5D
BD7DDA96
3F1DEEF2
3F4418F2
3D8598E0
3E95D16D
3DD35198
3E662AF3
3F643A7F
3ED0D8C6
3E8A3860
BF0A79F4
3EDADCF8
3E0D4C98
3F0C0F03
3ED0F008
3DDBB6F3
3EE6FB23
BE743DF9
3F4ADEC8
3F0A7E53
3F5E7D7C
BE144EF1
3DAAA86E
BF6EACC4
3DC5870F
BEA730A3
BF33F5E5
3E19EC84
3F6AB171
3D87C764
3F5607BF
BF5351C4
BEAF3E23
3EB91F8E
3F17BD9F
BD6F1938
3F12BDD8
3E9D7E13
3EFB0988
3F736D72
3D9B118C
3E71DA1F
BE6F2DB7
3EE29119
3F6845B5
BD604BD2
BE66F33F
BE95C75F
3DF60307
BEBAB17B
BE13D60C
BD99978F
3D50218A
BE566B00
BEB8D046
BE9A97B5
3E458D1D
3E263692
BE9C0DB3
BD98B2EA
BE31FDA4
3E9E0496
BE6944B3
BE29B03C
3E27E5CE
3D6661B0
BE9801D3
3E040759
BDEE6662
3E35827E
3E41325A
BEA7C2CF
BE900A0A
BE6509EA
BED56024
3D5D06A1
BE9537ED
3E3FD859
3DB59AA9
BBAB8AD0
BE4D3CE9
3D91814B
BD9955E6
3DE18B12
BE318513
3DD3A6E0
3DB3866A
3D016D95
BD768188
BED21EEF
BDE5072D
BE4BFDF1
3E112B6A
3E68422A
BD5754E4
3C6E895C
BE5EAD67
BEB04A74
BE095CD3
3D81F222
BE95B23D
BEC68750
3E1C0930
BEA8AEF1
BE448254
BDD0F037
BE899288
BEA86488
3DE149E6
BEAE7E8A
3F444C0B
3E12FE66
3EA19FEA
3EA3A9C5
3E4282CA
3E59D9CC
BE74DB0E
3F236DD8
3ECC08B3
BEACBC8F
3EA4036C
3F0869D7
BD3CB288
BE5914C0
BCC3F6F6
BF65AEEF
3F79D547
BEF6B4CB
BE0AEF6B
BD07BCB0
3E63D6AD
BE2D69EF
3EC406D1
3E1158E3
3F60964C
3E0EDF54
3EDACF43
3F19C499
BE0B12B3
3E602EC1
BEC27E6C
3D8FCFAC
3F2CB983
3E86E800
3E269E65
3E8E3172
BE9F99F9
3E26CCA1
BEA38D78
BEBB1E3A
BD6E02D2
BB199285
3F64428E
3F07854D
BEBC683F
BE05853D
3DF67B58
BFA1B192
3F3553EF
BE5F6501
3EFE79D8
3ED708F1
BE7600BB
BA118219
3E7166D1
3D76B92D
3EE141A1
3E6F64FA
3F60E9A9
3F00733D
BE231A87
3E3D2AF5
BE13ADB0
BE8D6C82
3F348F33
3ECB0975
3E48CF72
3BA32FC9
BE8136A4
3E414EB4
3E005130
BECEE2E3
BE092C38
3E8867F8
3DDDD3E1
BD809907
BE80EA3F
3DCA8547
3EE9EA38
BF8FDDCB
3F43E8FA
BF63A888
3E1316A6
3E99E04D
3D2E4094
BE4FC777
3F8AAB61
BD06E2DD
3F1F177C
3EE5CDCE
3EB99A80
3E484814
BCC2F68A
3E1E7ED0
3E893993
3F6F556D
3F8139F2
B9EF92CB
3E85E986
3F6E95A4
3F705D29
BF9BBEEF
BFC16568
3CF5A5D5
BF22123D
BE17938C
3E95926D
BFA5477E
BDFD6965
3FA96F4E
BE5D57B0
3F16AADD
BF35349B
3ED6D144
BF10B906
BFB0A15D
BF1F3A57
3F024EA0
3DBBE457
3EB59693
BE42B7B0
3F36A484
BF1B3C87
BECC6AC1
3E1F2DBC
3F14800F
3F27AB3C
BE31AF2F
BD434679
BEA1C264
BCD17D35
BEE280BD
BD1C85FD
BEF1A90A
3B2C6B0E
3DB8AEA5
BC674FA5
3DAF4DB7
BDF671F7
BEA1DD33
BE962EFD
3DD79BCB
BE0B4C6C
3E76430A
3D503298
BE95A8AD
3E3FCFD5
BE944074
3E27C860
BDEFC206
3E047090
3CA32DFA
BDEBCC10
3DA5A8B0
3DB5A06D
BD92CE8E
BE1770A9
3C9E8B1C
3CA44D84
3E145DA9
3E60E814
3ED806A1
3EF1F1A6
BDE3ADD9
BEABBF62
3C65A852
3DBB55A9
BE54B81A
BDC581E3
3EEE6EB8
3EB81F1E
3F002B25
BCCE97BC
BE562620
3F38317A
BF08277D
3FA05569
BEF0B1FE
3F011722
3EC5F9DC
3EEEB8FE
BEE12303
3E28AC90
BD391C81
BC3741F6
BEAAECBE
3ED057C8
3E764514
3DEDDF52
BD365F72
BE536B66
3E8BC967
3F4C835F
BDAC82F7
3F0C8F38
3EB13414
3EA5AAB7
3EDBEDA5
BE5C64BB
3F057F03
3DDF5A46
3E5E0693
3F1B74F1
BD55AD1E
BEE3713C
BF3C8157
3C1451D5
3DC76D68
3F0B251B
BF1F3F31
BD060A90
BCB8CFDD
3EE061B5
BDE33B7C
3F5122DC
3EBB6B73
3F262472
3F31E2B3
BDFDFD9D
3F5BA0D9
BF1F9EA7
3EF7FE0A
3EF3449A
BE0A1524
3ED1B658
3E9974E1
3E780895
3F28802C
BEAF35B3
3C7A852F
BE36EFBB
BD234EFA
3C88A7ED
3C5D7DCB
3EB5DA4B
3ECAAD0D
BE126538
3B965826
3E73AD03
BFDE20FD
3EEA6D2D
BEFF2116
3DEC9D8E
BBBAAB26
BE880058
BE07391B
3F597EF7
3EC12958
3F614794
3F318D88
3F32F387
3F852B69
BE802662
3F2C44CF
3D98D60C
3E401435
3E15E5DA
3D5BA2CB
3E1E4151
3EC7A24F
BEE33E1D
BEB5F047
BEFE94F1
BF08749B
BF98EDD2
BC9D9358
BF0B596B
3E24B08E
3F0EC37C
3F199BEF
3EF80DCE
3DE80C9C
BF8DEBBB
3E62A81F
BEB69FDC
BEAE2DF8
3DAD442F
3E99463B
BF113846
3EAE0E1B
BFBCAB09
BEBC13CD
BEE1173C
3E38E460
3E0BBAA9
3EFE4F44
3F2E123A
3D48929A
3EB6DACF
BE72D557
3F432536
BE24E2F2
BE84915D
3C69BEE7
BEE3E3F4
3E99FFE7
3E2B9911
3F11857D
3E3E53B9
3E7A0A87
BEC79A87
3EBD69CD
3F2DF35B
3DA3E3E7
3F159D35
3E79A779
BCC73D7B
3EE9E6E2
3F44CAF4
3E5EAF50
3D1E0F33
3D93BEAC
3E4296AD
BE312E21
BD19F538
3F4C148A
BF355CF3
3EDB2934
3EEF2E20

