3E8E165B
3F000564
BF4C606C
BE61489F
3D8F4103
BD38F9E0
BF5CCB93
BEB11D08
BED798FE
BEC87C33
3DBC5B7A
BE362B36
BF895133
BDAA5BF9
3E3D9B40
3CC3CA60
3F0E0E72
BE88BAD2
BF268575
BE6104CF
3E8FF5E9
3EA5F03F
3DB0AC68
BE11AF18
BE7BF372
3DFAC2A7
3DC916A2
BF02762A
3EF0A015
3F0103C9
BE3889B8
3D2EE8F1
3F0B3954
3EB81F2F
BC74C55E
BE710006
BDEAFF1C
3CECBCD3
3B36CE8D
3C4844B6
3CDDC487
BE40A25A
3CE98BA2
3D932C1D
BD69B528
BD0E675F
3DFEF8F9
BF07AFAB
3D80EA0D
3D45D17F
3ECE6984
BF5F7793
3DB582F0
BC861933
3D88D771
3F1141B3
3E7B591B
BEC6B1CD
BE036F08
3F330D09
3E622552
BEC63B1E
BE1AE7FD
3E0C2249
3E12C630
3F55E0DD
BF4E2673
3D04DE77
3DDF9048
3D7CEE0D
BDF5FDE6
BF1FEAFE
BF002484
3DE40985
BC373FE7
3F1D3596
BED6E393
3E6344D3
3E422FAE
BE09CD2A
3EB755DF
BEC92042
BE25FFF6
BDA8736D
BD518A95
BEB0F765
BEBDC8FE
3F256923
3E277D1F
3E19D109
BE461658
BD20B986
BE6FF1F6
3CF360F2
3DCD4189
3DA64094
3F264F18
BD095ACD
BD73A0A3
3DC3C416
BE575450
3E6EF832
3E8F16AD
BE1CAF9C
3E0EE9B5
BEDFE07A
3EFC5FAF
BE010C51
BD0DE741
3C721519
BE812277
BF209174
3E36A3E4
3C275C91
BD4F0165
3E848B1D
3E0C15F6
3E2F0DAA
BDD8BF52
3D3812D9
3D3F2A62
BDC5F6EE
BE013F75
BD827EFC
3DF90136
BE00D314
BEE02AF4
3EE27C3F
3EB059AF
3D83B75D
3ECF25AF
BE582304
BEC7695B
BE8B5AFA
3D1466AF
3F0777AA
BE47E58E
BF0CE561
3B09732E
3E7D3EE3
BED5CBBD
BF0221E2
BF5FF149
BF355824
BD699901
BE74DB88
3E2B0EF0
3EEDE343
BCF96438
BDBA7EA2
3E59F191
3ED5EDE3
BF21B141
BF99105E
3E1E7230
3EAE45E3
BEBD071E
BE57F87D
3D5A0390
3D88001A
3F02CCE7
3E782CA0
BE5945D9
BE89E7F8
BBF843B2
BCE194EE
3E26A543
BF2F584D
3DB3627C
3D5FF5A9
BCFA6E33
3E330F73
3D4575DC
3C7EF1B7
BC9CF67F
3ED4FC9E
BEEE8FBD
BFFB9443
3D578091
BD54362E
3DBFA0E0
BDD7D758
BEFD6082
BF1B4EF0
3D8682F8
3E057FF3
BD93F2F7
BED5EB06
3F44C99E
BD7887F2
BCDB35B2
BD85FBC7
BE32AB37
3E42EC31
3F25302F
BE3A8FCD
3D802E19
3E7846F1
BDBB4517
BE99E6B0
3EDB50E8
BE40AAFB
BF80C8F4
BE03B3B8
BDA7861E
3E5560B0
BEE58E9E
3E6D5F92
3E4C8608
3E04C385
3C2BD285
3D927335
3E5ED4D8
BF9AF9F6
BE931D5E
3DB9EBC7
BD48B16E
BEFB09F9
BE0CACCA
3E46D283
3D79AD8B
3E977C74
BE3E7CA6
BC9F5E41
3F3150CC
3EFE7507
3E799097
3EE09833
BEE83274
BE34B5BB
3DBED93D
3E8BCCE3
BEAB16DF
BF910BF1
BEC29508
3D9CFE15
3ECE7CB1
BD923795
BEC51467
BCEB1102
3DC1CA3B
3EC57AC6
3DDBA95B
BEBBB910
BAB7CC06
3ED7E66D
3E70750D
BEDDDC37
BDD40576
BBCCB4A5
BE8FC931
3E583575
BE7FB05B
3D85066A
3E3F772A
3EF229A6
3E23CB8C
BF931E98
BF07CD73
BB81DA12
3E15645F
BE0983BB
BFC83CC4
BE7EE962
BD6CA098
3F000301
3EC3B732
BEC0FE57
BE70903F
3E881405
3F1A5DA7
BECE3E1E
BDFC7B1B
BD7E5F86
BD36020D
BE6FA949
BE484D0D
3E42138D
3D85DF6A
3DBD5E15
3D95572A
3D272667
BF6C6544
BEC00F21
3E11C97D
3EC51A6A
BD62E1AD
BF0B3297
3DF9FFEF
3CBAF23A
3E200135
BDC37218
3E2CCC03
3E30223D
BE5E35FB
3EFA37E1
3F63F09B
3ED71624
3E9AB477
3E4433A0
3EC32DDE
BDDCE6A6
BE735D31
BC4C2E11
3DABDFCC
BCB82E4E
3C812F70
BF699778
3D175D9B
BC59311E
BE36331C
BE661EDE
3F42FF08
BC59DC21
3EE2BC0B
BE9B8BF7
BE6DA0C2
BB7B199C
3E9028B6
BDE86CD1

