3DE98991
BBF96FA1
3DFDD55B
3DDEE596
3D9E7810
3D95AF20
3DCE3EC2
BDEB5F49
3D2D18C8
BD3E1597
BD0128FA
3C5216CC
3D374A07
3B66BD21
BDA563B4
BDE6B862
3CBCFD90
3DCBE009
BDEF29CE
3DB8636A
BD280249
3DCB63F6
BC3146DC
3DA0D5FE
BD2F4F10
3E028D06
BC7A4B78
BD95C70E
3D928864
BDAAED09
BD94F452
3D49F1BC
3BDA1640
BD035CF6
3D0B30C2
BD39B485
BD431C76
BD060A8E
3D4CF2B0
3DFC6D62
BDBB1839
BD3D42A6
3E0B44B9
3D3486C5
BD21A926
3D97C7A8
3DA54D44
3D81B3CD
BC9CD7BF
BD2C0E8A
3B3E6B63
3D90F538
BD848FBB
3D143BDE
BD79B49C
BDE673CB
3DAFEB02
3DDB302E
BD8209A0
3CEAA0A0
3D93340E
3D3AAC47
BE105519
3E01136E
BD439CAF
3D95C2BE
3C8C6108
BCF30509
3BC33751
3D1718F9
3DCFC28E
3BD74BA7
BD309A0C
BD80F548
3B8EA9DB
BA90A97D
BC9F05A4
BC1E3BCC
BDDBF906
BDBDC5CA
BCF0F5C0
3DFBC46E
3D6A8F3C
BB99D8D8
3DD24468
3D49406B
BDFD0DD0
BD579699
3D2749E4
BD838CE7
BD3CA777
3C4755F6
3DA99318
BD8A2295
3D566BCC
BD98562D
3DDB71E5
BDF45FF6
3CCA06B0
BBE1EAF0
BD877D28
BD988B81
3E0EFA45
3D0D14E7
3D32506C
BDF3BA92
3C80FD60
3DDA68CE
BDCD4259
BD3EF701
3D07A1AC
3DB18080
BDE0E42D
3D96E0B6
BD823812
BE07CEA4
BBAA7250
BD0C9CFA
BD47F44C
BDB86DA1
3D314EA9
3CC2EBFE
BDB91DB8
3D3FA522
BD2B1C94
BD9F4442
BDE62081
3E0B4B28
3D9B5E5E
3BE0059E
BDB7A647
BDD4A85A
3DFA31B0
BD20642C
3D52B350
BDD5B268
3D0BB207
3D1D2E30
BBAE238E
3DD58AB7
3DCAE528
3D2FB7A7
BD8D7EB0
3BCC974A
3DAAAC68
BD2973B9
BD89E6D5
3B6445FD
3D92800F
BCB2CA20
3D4471D4
3DD6926E
BD767152
3D321C5F
BDEB639C
BD91E600
BDCB5567
3D403C12
3D8D1248
3E0118CE
3DBFF74A
3D9D7D3F
3DA85C7F
BD4AC94C
3C7FE1FD
3D4A95BF
BD9064FB
BDDE1A25
BBB5FB70
3D2CBCFC
BBDF04A7
BDC932E6
3DC66B1E
BDA34937
3DA1E5D4
3CE4BF1A
3D27BEF6
3B39B920
BCC58B16
BD2224E2
3DE55123
3D6EA8FE
3DBE4EDE
3D97060C
BE0FEBDE
BD9A2FE8
BD97F017
BDDAA352
BC5D3C7C
BDD3360E
BD2A6E9E
BD346636
BDE5CDFE
3DA1C211
3CB7FE10
3D7FBBC4
BD743086
BDB23EBE
3D61AEAD
3DD0B7D7
3DDC7D93
3D7A5A77
3D4DE448
BDAB9594
BD6F1E56
BD7FBD7E
3E281C10
BCC843C3
BD96B729
BDEA87CD
3CF3C2A0
BDE3EABF
3D476B74
BD372609
BB2AEC52
BD9976FE
BD9867C6
BC7CC278
BD3FB397
BD4A50B6
3CA5538D
BDA61666
3D881DF2
3DB35026
BDE0A67A
BC5B1D48
3DB78C16
3D9A7D9A
BD789CF8
3DECB5F2
BD9CC73C
BDC647A4
BCABADF4
BC90CB50
3DEDFC66
BD84AAC0
BD7272D0
BB0846B3
3D6949B4
3DBE7B3A
3DBACC25
3CCA678F
BCA1C3B8
3C2D0EB1
BDA01F7A
3D07BD74
3DCF9A67
BC8C0E6B
BDC3BE07
3D908E5E
BC7632D0
BD8AFA04
BD6BA216
BDC1F5FD
BD796A5D
BD2F4B6B
3D2B2910
3DEE6ABF
BD5E65D2
BDF18DE5
BD091FA8
BDA5A790
BCA04CF8
BBE9046A
3D589F1A
BDA6E0D9
BCBEA97A
BD0DB5A1
3C4748AE
BDEB2B29
BD3113E4
BD08C469
BD07CAEE
3D9FC212
BD6A35B7
BDC28452
BDA05C7D
3DBF58BC
BC53DFC8
BC33A2D8
3D7A5F92
BDA79034
BD525F4E
BD5177B2
3DBD014F
BDF439A0
BD3157C8
BDA74A0B
3DD6B2D4
BBD74397
3BA2CCEE
BC32EA12
3DB70AF3
3D69FA8E
BD5FD995
BD85C144
3CB07520
BDF22122
BCE78A71
BD807F21
3DC71E32
BD0AE181
BC3F81C0
3D3DF661
BD937E9D
BDD62281
3D6123F4
3C38FB90
BD009BA5
BC1EB457
3D105FF0
3D1E2624
BC700879
BDBC87B4
3DBB84B3
3DB59F8E
BCE2F4C9
BDAFBFF1
3DF25392
3C8E90C7
BC6CC43E
3D58E78D
BC9FDF60
3D0D7744
BAF3BBC5
3D1E6F09
3CC086D8
BD8AC605
BDD7966A
3C703B93
BD699886
BD7C4026
3BBFBEE7
3C8F7E95
BD6F892E
3DAB1F9E
BDB7F27C
3D6B9A3D
BCD8D139
BDED84B8
BE03E1B1
3C173B0D
BC121DC9
BD7859D2
3CD52530
BB9BCE50
3D80E864
BD14BC78
3D757F8D
3BA829F7
BD8DBB7C
3C83F467
3BB55BCE
BD274D66
BD7AAAC7
BD7B1C64
BDD56B6E
3D388908
3D4BF327
3D8F0310
BDA3748C
BDC4D980
BD970627
BBDC96F2
3CBAD05A
3B8CE836
3D8E696E
BDE98DD6
BCF75C2E
3DDEF16F
3C312710
3D196AB0
3DEBB198
3C57DE60
3D90A47F
3D7F5E37
BDAC0D6A
BD1BCC4A
BDAB02BE
3DE730D0
BDBB02E4
BC642212
3DEED960
BDBDBBD2
BD9DA5ED
BC874FC1
3D639A83
3CF4CAC0
BD771AAE
BD93447C
BDEF0656
BDA8293C
BC695A1B
3D19DE36
BD4585B9
3DA2CF97
3CFD4869
3CF1A458
3DCF281A
3DBCA593
3DEA926A
BD88B34B
3DAF9E62
3DE796A7
3DC1FCE1
3DDCF0AB
3D186AD2
BD2CD0DC
3DDC6981
3D91080D
3D79E80C
3D7ABE1C
3C643489
3D68363D
BC977DFC
3CAC292A
3D32A498
3D80767A
BC20A0AA
BD9E49DB
3DF80830
BCCCC907
3DDEEBAE
BD1A22C2
3D38EF54
BDF27FFF
BD813F7B
3D9D873B
3CE69508
BDC6E23E
BD88C5F6
BCC7DC2D
BDB84623
3D7AB454
BD61A384
BC053868
3DE2C5DF
BD6C2495
BC80E070
3DAD3D52
BDB214C0
BBFA314C
3D68B443
3D0A5E90
BD55A8DD
BDE72808
3D057D07
BC176565
BDD17926
3CD12DEF
BDC57238
3D8BE86A
3DE64CBF
3CEA3365
BD92070B
BAAE9AD9
BDA320AD
3D3F9A88
BC0D62CE
3D4346E5
3DB375A8
3D1A8300
BAA8CEF5
3D533E3E
BD82A27E
3D9216F9
3D5DA6E4
BDFD7D91
BDB6460F
BD7C884D
BC2F31F9
BCD9297F
BC7FCA28
3D911536
3BBAAB7F
BD02820B
3BA25DCF
3DAD0B14
3DA8F668
3D3BFFDE
3AFC1A68
3DB6F70C
BD083C4E
BDC245AA
3C156480
3C94BFC8
BDE735EA
BD3CDEE9
BDF3A07F
3CF637E8
3D1FD170
3C4129D1
3D2A04BB
3D44B555
3DDE7728
BCD8510C
3C08DCB0
BC8C0355
3C28ADA0
3D84E387
3D9A7B1C
BD05F6CC
BD84A702
BB2FB569
BDD92801
3CBC3686
3CCF35D8
BDCE4F3C
3C084DF0
3C3835E8
BDA63EAC
BD2EED39
3DC83276
3D8D022E
3D26F420
BC47BF80
BDDE8158
BB8F6320
BD741191
3D9DDFA5
3D00035D
BCBF5791
3CD35B03
3DAF42C9
BC18FFE8
BDA3FB37
BDC7CB65
BC3B8B44
BDA772C0
BD745E1E
3DF4F91F
BD340BFD
3C92BE18
BD150E68
3C849CBE
BD9AF06E
BC2A252D
BD5CD3DE
3DC25280
BC8AA49C
3DB004B2
BD0B6BFB
3C71A6B0
BD82019C
BCC92C38
BD75580A
3D7FBA3D
BD058745
BD51A7E3
BDE373FF
3DDD7A54
3DE5BB68
3DD6C3BC
3CCA39D8
3C9E2EBA
BCE0897B
BDAEB968
BD8B044C
BD707847
3DC2EC41
BDD6176A
3DF4A29C
BD6163F0
3C4E0C00
BD6C7360
BD4975FD
3DE3A688
BD8FDEB0
BD28D980
3D756335
BD1B1319
BDC91C61
3C8B5BFC
BD5B3FAB
3DEFF815
3DF10459
BD849931
3DA32236
BC0BC870
BD889A7F
3D2F636C
3CD14BD7
3CAE5941
BD9C1F8B
BD5CFB7D
3D1997A3
3D0D79CB
3C41A4C3
BA7D1892
3DD220D4
3B89FAC5
BCB56E7E
BD166222
3DE30769
3DB08CD7
BD8DE03A
3D836B7E
BB2EA5A0
3D8092C7
BD895F6F
3DA6EDDC
3D09F794
BCA7281F
BDC1D5B7
BC15DB6C
3DDD776E
3DEF6ED2
3DC5DD78
BBABA7D6
BD6DF62F
3D9C85E4
BAD898C0
BDC35460
3C5CE680
3BAB3648
BDFC5213
BDE49785
3C862318
BDD00C8E
BD113ED5
BDA2EB00
3D8E3D1F
BC95C774
3D05EE64
3D497A4F
3DB136D4
BCFFEA88
BD84D7A5
3DDAD308
BD6C7344
BDEAE363
3CB10A21
BD5C507A
3DC00016
BDC99E02
BD578D9F
BD2D8342
3D8560D6
BDED0068
3DB42941
BD78AC49
BDC69CC0
BBEB8E5D
3DEBAA04
3D10FDC0
3D4FC57C
3DE541B2
BDA308B8
3C9B1A69
BDA2A1EE
3DA6813D
BDD4C60F
3D472A37
BD95A0C6
3D47AB2B
3C37FC84
BDF0DDF8
3CA6886F
BD9FC9DE
3D92CF27
3DBA1C76
BD14B102
BD31AE4A
BD892D71
3CD3BA12
BCC6E75C
BDCFF11A
BD966D70
3D32FDD2
3D866999
3C016DD0
BD273889
BBF46BC0
3DEC3B0D
BD8478FB
BD5B361E
3D3CFC34
BDEFA665
3D958772
3DA3954B
3DC5A3CA
BDF3F8EB
3D379F30
3CC8A63E
BAA9F940
BDAE0E91
3D9F9F80
3DD01FA4
BDA13299
BB4B5D20
BB04214D
BCD89580
3D873E68
BDABF48B
BDC85A4E
3DE7B264
BAACE04D
3D1B541A
3D397A18
3D7AB700
BD9992C7
BD41826D
3CE62B37
3D4AAA4F
BD3DD237
BD90DB66
BDEA03FF
BD56DB36
BD2CD1D9
BDEC83EC
3DF2C5E9
3D15DA5B
BD9C7035
BCE5BD04
3BAD8634
BDDCF1B6
BDC13F5C
BD3C7E3E
3D64B0C6
BC8C0454
3D28E66C
3D6E932E
BD9DB934
BDC5DFF5
3CD82ACE
3D4ADBCC
3C9759DC
3D9A485D
BD46CD32
3C33CE30
BD501024
3D66C532
3DF3D9F2
3A993F89
3D2715F0
BD8A1BD1
3D94931F
BDCDAF74
BB4C27E0
BCDFDE98
BDACA01D
BB229EA0
BC3CD13B
BD1F0A87
BD08BE4E
3B02A3E0
BDB66230
3DB559DB
BDC4424C
BE0C5400
BDF343A9
BD16963A
3DEA6728
BDB238C4
3AC761C0
BD17CEB5
BD3CFF00
BD9A8E3C
BDDA7910
BD163F0B
BD454F6F
3C3AA267
3DC69028
BC79EB10
3D6B2C20
3BD32B7C
BD6ADA4E
BD79C7A4
BD9E9CDD
3D83DB61
3DEFE746
BDC02C25
3D95A765
3DD38B20
3DF08DA4
3CC4846E
3D325E66
BA4E063D
3DB5FC5A
BDA0E9D2
BD27EEA9
3D6088D8
BCCCD944
3D53FD70
3DC85BB4
BDBB9762
3D9F3DA6
3E0A597A
3D012541
3C0F6F8B
BDAB2AE8
3D6C2878
3D123A6A
BDE10D09
BDA1E936
BCA91CAC
BDB3EA8F
3D62030C
BDBD3630
3DD47048
3C5D94E0
BC80AE02
BD56EBC6
BC96B4B7
3D8424EE
BC91A4A0
3D36DB2B
3DEB09BF
BD8F11DD
BD699A6E
BD869EF6
3BA6C876
BDB60F11
3DB6BCCA
3DEBC3A0
3D3F0A48
3C6BC330
BDA668D0
BC2D0FDC
3DB8AB90
3D308147
3C486289
BD8A2E31
BDAF5DD2
3CBEB580
3D29F21D
3DD52168
BDC7842C
BDB7DEB4
BC8046C5
3DA6D305
3DC96CC9
BC99B41D
3DE24420
BC476C80
BDE2DAF7
3D824198
BDD9040E
3DB49658
3DD1B859
BDA5E392
BDCEFBD2
BC133F5D
BD8208D1
BBDD36FA
3D7D10BF
BDC2CB3A
3D9F5674
3D4AC47C
3D80EB52
3D28ACA4
3C995080
3C0BD64F
BD933280
3DDF8057
BD3FE3F6
3DC364BA
BDDD1B76
BDB2CC60
BD1E626E
3D329302
3C1EC91A
BDA9A100
3DC0EF7B
3DB53FD7
3DBC8F7E
3CCCEF18
3DE5590A
BD9A627E
3DBBE310
BD4922AC
3D872863
BC3B6820
BD2C0E6C
BDC25A8C
3D9E2EA3
3D01AA73
BD4FAB22
BD967773
3D432C58
BD8BDA31
3DDCAEDB
3DB93AC0
3CD44C69
BB072920
3D12A9CC
3D6532EE
3DBEB464
3C1ADE9B
3D3BADED
BC9F6428
3D9D9AA2
3D3B1C58
3DCBCA60
3B527E20
3CBA1DAE
3D6881C7
BC44020E
3D3CB64F
3DCEB06A
BDFBEC1F
BC868058
BD39D1A6
3D65A92F
3D86B3B4
BD982265
3E25AA7F
3B72ADEF
BD5054E6
3D93743B
BD586F71
BDA9A124
BD39B6B8
BDB396D1
3CFDA543
3CBB06B3
3D60D7E5
BD788968
3DB7A73B
BDA9D542
3DBB3E73
3D02A43D
B958CE00
3D8F4344
3DC0C1A2
BDD31C04
BD62427A
3D7966D5
3DE259D2
3E0AF196
BCF08DBA
3CC9FB5D
BD45F276
BCE33B46
BC44877D
BCF9A1C9
BCB0B9C4
3DE37062
BAD30FCA
BA46C1A9
BDA5878E
3BDDCF8F
3DA5564A
3DAE1F91
BD172AD4
BCDE579C
3DBB153C
BCAE395C
3D775106
3DBFC6C7
3D9D3C70
3DF2ECBE
BDE021BC
BD5A5AFE
3D9AF5F7
BD79B217
BD2AA4DE
3D043FF2
BD7379C6
BCD0E30D
3DA60858
3CDEB9E0
BD9341E6
BD66BC0C
BD365B34
3D08381D
3CFD918D
3C84C996
BDFB4AA9
3D98A402
3C1CEB75
BD70E893
BD4B3FA7
3D62D5FB
BDE8088B
BD44F9E6
BDF336B9
3D843CB0
3DCC8EA9
3D345D11
BDA6C4FA
3C940020
3D972536
BCD3E7CD
BD66E89A
BCBAC5A0
3DAC91E6
BD941421
3DC18363
BD936C2B
BDA95DE9
3C452C3E
BD129CEC
3CA0D5B0
BDA83D09
3D5FF710
BC76B518
B84BD000
3C9068F1
3DDC15CD
BD377DDA
BCCCC500
BCBF3540
BD69E178
3D83C55A
BD3856B4
BDCAE7C3
BC83DCDC
BD63982C
3CD671C0
3D465170
3D64F5DA
3D809956
BD8B034E
3DAE1889
38A96826
BD9DF3CA
3DBBEAC2
BDCC3308
BDCDE58B
BC0C0BD0
3E19EABF
3C411280
BD24C646
3DA09AFD
3D7FE3D4
3C33B583
BD353018
3B294FF5
3CF51E18
BDCAE4E5
3D4524C3
3E02759D
BCA7E22B
BB6890B5
3C9C09A6
BDA357D5
3DDA7E3C
BD7F6986
3D5EBCF2
3CE45888
3D72132B
BE084A38
3DBFF6D3
BDE46F70
3C06A693
BDD77DE0
3DC9B110
BDF9EB6C
BC17F502
3D9A5FFC
3D454EF4
BDE6CB59
3DE1AF0E
3DD19162
3DEB070A
3C8CD0C8
3CDDF4E8
3D3442AA
BDE2C1CB
3A29604C
3D2382CE
BD510238
BDB1B5E7
BD963948
3D2386B8
3CEFC567
BC843B22
BC518968
3C427F28
BDD8052F
3E042A8B
BDCB484B
3D349C40
BDC1EF02
BD9F3046
BCB9F8BC
3D9D03E2
BDF06249
BDBE78F6
3D47672B
3E14CC1C
BD40362E
3CA79B88
3D4A6AFD
BCC79A78
3D5DDF0E
3DE970F7
3D12A382
3DB266F4
BDABA75A
BD2EB79F
BD9AD354
3D6EB0BE
BD9EC332
3D9BE963
3D24251C
BD290977
3D97F9C4
BD43A70B
3C8423B5
BDA29F42
3DBC36FC
3D6A7C52
3D25740C
3DD4E56D
3D863706
3B8928B3
3D9502C6
3D01E0B4
3E0496BB
3DBC83F3
3D631944
3D1D3938
BD12E00A
BC9DC6C1
3E021716
BC195DB8
3DEA4324
3D9C05DF
BD9F9817
3D1C82F4
BBFE2AA0
3D51A1C4
3B1AB180
3D721958
BCB68B13
BD8B0F8B
BD13F30A
3BFB90E0
3CE0FA50
BD844331
BD8D7E5B
BDF9B760
BC591000
BDF42F97
BDF79DA9
3DFBB64E
3D6B0BA4
BE0E8017
3D4FC68C
3D135A68
3CFBF4F9
3D8754F7
3B8B4FA0
BD67BFA7
3C9D0C78
BD98A9B4
3DAB85BC
3CF6F8D7
BC6DCA30
BCB27BAD
BDDD54EA
3DE1CE38
3C7A3B03
BD5DADDC
3DCEA8AD
BD7B551B
BD363194
3DE4DE3B
BD686B43
3DD5D493
3B8A0FE6
3ADB37A3
3DE3393F
BD9C3F58
3DB15178
BD849C74
3DF3631C
BDB79BB7
BD98ACAC
3DB39413
3D210F90
3BF16689
3C8A7AF2
BD256184
BDF403C7
BD062B32
BDE3538C
3DD0D26E
BC3FE82C
3D47B55D
3D40665C
BD6EEC39
BCF93894
BDAB849B
3D7ACA0D
BD7D649A
BDC81EC6
3DD54D98
3D9795D0
3D159A8A
3D434CAC
BD8FA418
BD9064C0
BDF25072
3C8999F0
3DC1CE09
BDABC5DA
BCEC40AA
B90F20B0
BCBB7958
BD1DFCEE
3C655650
3D971A85
3B876DB9
BCAF41C0
BCEEE6C4
3D71B9BD
BBFA1E7C
BD952D9E
BDCBCD38
BCC33FEA
BCC49C32
BD17A3AD
BCC0340C
BD63AF1F
BDE9C4EF
3DA4B76E
3C3B4370
3DA73B7C
BDCEF3CD
BD507EFC
3DA12FE5
3DE6A9A9
3CB94948
BB330071
3DB259ED
BCCD5F04
BD87E98B
BB2DD6CB
BDC259AE
3DCCF676
BD128FA8
3DC66B67
BE005B64
3D07D3AB
BCA701D9
3DC1D894
BD99A39F
BD8F56EB
BD9E3140
3DAEDD96
3CACFDEF
3D6F85B6
3C99F6E5
3BA8D0A0
3DA26DD2
BC7D29C9
3CC529A0
BC191998
BD00755A
BC57B4C8
3DCA43A6
3DDC5361
BD3A828C
BD8DF4D4
3DA6423E
3DD61DF0
BC4D2217
BCA9A221
3D97A300
3DB77D14
BDC245A2
3DE05A8C
BDE73D95
3D7D0474
3D804EE1
BD200234
3BD5B520
BD7BD29B
BD599935
BD18EA47
3D09A90E
BDCEA375
3DC21565
BDA1B5E2
3DD974B5
BDA3B59C
3D91D715
BDADA716
BCC2316C
3D83F53C
3DE835B0
3D1FE6E2
BC7B98E0
BD733405
BDDED65A
BD915A5C
BD8C1389
3C1E3A6B
3DCAC8B9
3DD01F53
3D36D19F
3D9D4C99
BD13A607
BD8A0CAF
BD6B1154
3D3E7DE0
3DDAAE79
BCD69FB3
BDF9432B
BDEEF89B
BD50A4C8
3D9DB937
3D86C979
BDD39F6B
BAF2E500
BDE23999
3CF88C90
3DE8BDF0
3E137638
BC67F2C0
3CED2796
BA976A75
3DAC2E27
3D92E2B7
BD2B0B48
BD067389
BD844B8C
3D7C7820
3D7A802C
BC547576
BCB08A17
3DA4CE78
3D9D21BF
BD015086
3DB15088
BD37DB45
BDC23440
3D998B30
BD217A1A
BD663260
3CF6A9FB
BDCE3368
BD9C7799
3D4260CA
3DEF5785
BD852C92
BD3D1D72
BA93113E
BC0F3628
3CE167AC
BD196F07
BCD1CFF6
BDC4C8BC
BD88B44B
BDF709FD
3D2873E2
3DD41AC1
BBFD18F7
3D884A4D
BDD0AC41
3BB8E1A6
3BC107A4
BCB52A26
3DC9EF61
3D9C0B2A
3DADCE03
3D58BB62
3DADCEF0
3D89E9EB
3DC85DB0
BC8CD58C
3DCB2E25
3DE68A5B
3DB64769
BDE79834
BDEF2F5A
BD81C764
BDBF73AD
3DAF563B
BC081886
BDB133BB
BDD95C32
BDEF8FC7
3D39562B
BD8FDA88
BD0CFC56
3DE1DFD2
BD260456
3C6C11F0
3B924090
3D80C618
BD4C4B0A
BDA82E79
BDCA479A
3CF54A4C
BD960872
BCEE4058
BD9E71AF
3CCCBE48
3D82AC05
3DA1E02B
BDCAE37C
BDD8D53D
3DA1675E
3D9CE348
BDC93165
BDC6C70A
3DC2EA1F
3E034522
3CACAFE0
3D4A2F00
3D711BF0
3DCD6C98
BB9F3030
BCDAB43A
BDA6471B
3D3D1EF4
BD8B4DFC
3CA63878
3C36163B
3ACDC700
BDA1A12E
3D8E8547
BD9CE50E
3CC1EB87
BD814010
BDD26813
3C743F94
BD8364D4
BD83B6D3
BA750AA8
BD2BE06C
3DD99B14
BD91E6CA
BD3C5333
3D115E82
BC278F7F
3D46D3DF
3D604314
BB85862A
BD6D1671
BD58C8D6
BB8DACD0
3CE3F20E
BCD9B9A2
3B660780
3DA3D49A
3DC382D6
3D39D961
BCCAC94C
3DA11F8D
3D57D30E
3DE0EFA9
3D62BC77
BDB0A158
BD9850D2
BD01F8E6
3D41F77A
BCB59788
BD865652
BDE3C4D1
BDB80D98
BDCD9FA9
BB8B8521
BCF4BDB8
3DC51967
3D9A96FE
BCCFD19F
BDA8437A
3D9E88E4
BDBF9D80
BD8FE5A8
BD2FF410
BDA88A87
3DC9BFAA
BD96C772
3C808ABD
3D8ACE2E
3C1C1539
3DDA7DEB
BDCFC4B3
BDC375C7
3C4AC564
3D07D652
BCB06183
3DA05740
BD9DC136
3DBA7239
3C76AAF0
BDE0E948
BD9B0ABC
3D1DAF35
BCA73D6C
BC39E307
BD1C39F2
3DBCF6E6
BD42C225
3BC039D3
BD86070D
BD0B92EF
3D5C0CC8
3A9F095A
3DD6673B
BC276888
3DEDD42A
3DD57BD6
3CFDAD47
3D28D903
3BA7AB33
BD96C9C2
BD8C558C
3CEE1E15
BD10DC08
BD12FF84
BD721223
3C5E0B30
BCF94090
3D8BC3A8
3DCC393C
3DB4B460
BDBD07AE
BD06BA76
3D858E10
BBEE64B6
3D9DB66E
BDE0B268
3DE15856
3C8FDF6C
BDCED24F
3DA1C8D8
BDB97728
BD9D7D46
3DBE7BEE
BDD4932D
BC84F771
3DB6F181
3DD49EDC
3C65FEF0
BDFF7E34
BD6292B4
BCFE17E6
3DA046A8
BC92FBE0
3DC1791E
BDBE47F8
BD8C2234
BCB9E7EC
3CF8089B
3D88988E
BDAAD2F6
3D331A79
3E01070D
3DA858E9
3D7F820A
3D83760D
3C55D12E
3E003B1A
3D6CD804
3DD8A3EB
BDB2F82C
3DFE9145
3D8842FF
BD807617
BD226B4A
3CE9C526
BD0C13B8
3DEADB50
BD2E75E1
3DA3E4A9
BA872B00
BD2998A4
3DAABFCD
BC3A963A
BDAD179C
3D934C26
BDEE716B
3D18740E
3D586F0F
BD46DA6E
BD262A7D
BD9928CB
BD855A1B
BD88404D
BB1643C0
BD346A24
3B8E473F
BC0844C7
3D65D58C
BD2B088E
BDE35204
3D68FC32
3D4FDE90
BD23CB80
3A91EC51
BC9256A8
3CAE01A6
3CBA7EFB
BAB84C80
BDE9E8A9
BD1A8EF5
3BEE2168
3C377862
3DDCF8C2
3D9DD2B3
3DC35D37
3D56BB36
BBB19671
BDE76C61
BC818CDC
BD293FDC
3DE1D26B
BDCBA1D7
3D21CEED
BBC3C605
3CE7954E
BDCEA981
BD6194E9
BC83B881
BD1EDFD9
3BF5B629
BC7AB3AD
3D4608B6
BD9B8B35
3D4E54BC
BD48D93F
3D960361
BD8C0B9D
3CEF2B79
3DBD2093
BDA9C34B
BDB39436
BAB2B200
BDF4FCE1
BD45D095
BE1E6B5F
3D2F3C4B
BCD4F43B
3D585CD0
BD94A842
3D18025A
3D4C34AC
BDA03D80
3CDBA198
3C2B83C0
BDCB18C3
3D761A13
3D825FEE
3D55C80C
BBA79400
3D875392
BDF1EFAF
BD7873CB
3BA435B9
3D8F10FE
3DDDA5B2
BC11E3FF
3DE41824
BD6ED79B
BE10663E
3DBE884E
BDD3B270
3CD19392
3DCC0142
3DBB368D
BD791BDF
3C776D30
B9E0E628
BC35F068
BD4E18EA
3DB1BA6A
BDD18C25
BDF17026
3D03BB82
3DCE8CF8
3D0C6640
3D2CC608
BD9CFD53
BCB2613C
3D2DE0F6
3DA1FD97
3D8241C7
3D0DC583
3C05FF0D
BDDED9F1
3DB24173
BDE866CF
3C46B5B4
BD7EF2F5
3DE0EDDC
3DA206B0
3DB42A2C
BD6A0A67
BD416924
BCF6B46C
3D30B1F8
BD9FA13D
BDE2E070
3DCAD40E
3B5EA5A0
BDD59A71
3D8C522F
BD60ED04
3DDA9347
BDBDACA2
BDDCE463
3CE8FBB3
BDAE33B5
BDC5A0E1
BC63A0FB
3D3569FB
BD5BD47A
BDF3D4B1
3D2FDD54
3CCA5553
BD68064E
3D9CDECA
BDC14AA0
BBE0B700
3DF005D3
3C91FA1A
3DC39BA0
BC2D2942
BD98AA02
3D405FB0
3DBD4C29
BC292038
BDDB5F42
BDF1AA2C
BDBF6AF8
3D5709F3
3CABA2C8
3DBB036B
3D17AD93
BC910601
3D04C464
BD6AFF73
BDA8BAC8
3D54B3C4
BDC06157
BDD38C58
3DE8DABD
3B7A55A8
3CB50FDD
3D66518B
BDC97110
3DC82515
BDE923F4
3B03CB75
3DAF02B0
3D8DE498
BDAD6794
3A6C3C80
3C23C87D
3D0A9D84
3DAA0E54
BDD728B8
BC544078
BD83B8CE
BD6D5D96
BDBCA562
BD6A9684
3CFF3E27
BBB013DC
BDCFF1B1
BDB37ADD
3D8202E6
3DA79380
BCBF7042
3DB967B2
BDF37DC6
3BCBACE0
3DEBAAB0
39F35800
BDB9EA70
3D5ABA52
3D0690C4
BBE0CAF0
BD2D973A
3DADF21A
3DD66BE5
BE08CCE3
3DA146BC
3DB4862C
3D6B3031
BDEE214A
3D51C70C
BDF600B6
BCDC7A3C
BD7562FA
3DBCD374
3C112D0D
3DE72365
3D69FA61
3D6B8554
38081019
3DEF6634
3DC057ED
3D252DE0
3DD4E611
3D686D1F
3E16CAA6
BE81257C
BDB61F02
3E08741E
3DA73C82
3DBCF042
BD1A7A64
BE615E89
3D9B4771
BD901101
BDB30F88
3E0595E4
BE673611
3E6A96ED
BD472F49
3DB77BBC
BD8C8BC6
3E7C3583
3DB59661
3E85D4EC
BD79F18E
BC2E9BFA
BDDF32D2
3D47079B
BE33CB98
3D134314
BD94ADD2
BDCFABE1
3DE69410
BC946B1C
3E79FCC4
BDCDA60A
BD7BA6F2
3D6204BE
3DD9E6E3
3E2F02ED
3D4741F8
3DB260E2
3CA2D634
BCA09524
3DE65E0E
BDBA0C97
BD55F051
BD438138
BD566B2A
BDCA3070
BD1FCC0A
BD8FEC21
BCEA950C
BD08EE9C
3DA34FD8
3DF57E35
BDB0BEE2
BD4742B4
BD263158
BC57E556
BE0D0615
3D3CDF7E
BD14B54C
BE7E6B7E
3DD05804
3D891C62
BDC98B09
BD3A09C6
BE5D3302
3DEB62B8
3D8EE525
BD0DCC0D
3D4F6D4A
BE25AE40
3D8FD85F
BBCA0FB2
BD26A5CB
BDE2DC81
BC8BF7F2
3DB38CD8
BDE688C2
3CAA3FC1
BC0F2679
BD6741F4
3C75308F
BDDDBE89
BC9DB92C
BCD2FFB2
3D3E556A
3D19BA6D
BE00B971
BC4E0738
BDB17402
3D9F08D7
3EB36E23
BD3B7591
3D3F8F66
3D21DC94
BDEDC2A4
BD39CD40
BD666274
BD2D39E2
BD3B0B2A
BDB61A94
BB150B80
BCAB884D
3C00CF2B
BDE09BD0
3C3FD290
BD53B89C
3B1F564B
3D54C13D
3DADAB5B
BCDB1810
BC0A3920
3DC40CE8
BE213744
BDA66608
3E810E83
BDC760B3
BCE3EDA8
BD99EA52
BDED62F7
BD8C8626
3D950C13
3D341B9C
BD8803BF
BD95DC41
BE6F189D
3CDD1A30
BE1F8F55
3DB94384
BD917057
BD930FE1
BD1F8564
3DBA37A3
B98A8C00
3B2190A0
3C5524C3
3D04D16F
BD9BB549
BD0F5638
BDECF4AD
3C545C6C
BCE92B67
BDCE52E3
3DC00B3E
BDD28DB0
BD24A60A
3D6F738B
BD83DB1A
BD487D16
BD54EF2D
BD18A74F
BD8D882C
BD9829CA
BD6BA4B7
3CAD3CF8
3CCC3B00
BD910E6B
BC74797C
3D88EA14
BD230271
3D9FDD04
BD6D81B6
BCFC2ACB
BDCD9C83
BD9C99BF
BE01DDB4
BDE7DFAB
BD358EFA
BD8220F4
BD83CC3D
BD113A0B
3BC12DF1
BD0DF670
3D6AC4D0
BDE553E4
BCC1C006
BDA72811
BDF3845D
BDC663F1
3D680D10
3AD14EA0
BDC4A4E4
3CC27950
3DA5C95E
BD15750A
3DCD92F7
BDF85759
BDC8BD90
3CE4D372
BD31E7B8
3D81FA04
3D32746E
3D7FDA61
BD96EA1A
3D208834
3D0DDD54
3C8705B9
3C286EF4
3D8F992F
BD9E3417
3D996650
BC83C016
3D178BEF
3DBC6F7B
3D88FDE9
3D345EAD
BDD3ED55
BDF09326
BD1AE908
BDB01632
BD6B22AE
BC8BEFEA
BD0B2D6F
3ACDE69B
BD2703DA
BCD29AFB
3CAB2A90
3D575260
3D177DE4
BACB1BF1
BDAB07BB
BB9C8AAD
3CAFAB50
BD93FEE7
3E00DC1C
3DC0F7AE
BD0AD704
BD8FC41E
3DAD5FAE
3DDA3536
BDAD3D9A
3D8BA1B2
3D9F107E
BD100B74
3DF1E60C
3D537A41
BDA15988
3CC6B6AA
BDAAA834
BDCB1FFF
39930EBB
3BE7E7EA
BD394B52
3D5CD0EE
3DC05EB0
3D876F16
BD9C69D8
3DCA62D9
BD9D2C4E
3D2CF65D
BD6EF6AE
BDF085D7
BCCEB3BC
3C83E064
3C2C97A0
BDB2AE9E
3DB88541
BD1598BF
BD0FAE0B
BDE309B0
BD97F9B7
BD8F4737
BD0FA1CC
3D748AC3
BD36905E
BD427B7C
3D777B19
3DB0B905
3D80D32B
3DDA96BB
BD8803E5
3B7E5182
3D5FAE28
BD145397
BD9DCED3
BE057D91
BCD0862E
BDF3F321
3D5A6B66
3D479808
BD3AB9AD
BB4996C1
BD3C75B4
3DA9A414
3C319A89
3C1285C3
BD851D6C
3D5C746E
3DC5D494
BD1E3093
3DC30F8B
3CA26385
3D278095
BDA084A3
3D9052D6
BB554CE0
3CB159E8
3DA3F62A
3D70B079
3D8AB868
3DCC6872
BDC28A4E
3DA1A6E2
BE06EF2D
BDFA711F
3D9A8FE0
BD3AE7F5
3CFA9598
BC48D10E
39BF8EAA
3DB61876
BD043208
BCA28148
3DC83197
BDB71758
BDAC3129
3D359928
BD3B245C
3DFFABF0
3B610995
3C91DB37
BC8DF6AD
BDCBDBB5
B9C3C346
3CF5333A
BDC7C195
BD438B6E
3C95CD6E
BD896E37
BD4CD64C
BBC24837
3C16EA4C
3CDE594D
3D9B9997
3DFB0936
BD5784A6
BD548EC6
3E02BF76
BDE9CA5D
BE0EECC9
3DEC8569
3BFF454B
BD19CC77
BD5608B9
3BA4E2E0
3D24A564
BDB2ECBB
3C07361D
BD73A312
3CDBC150
BDF1BDC1
BB14CCD4
3DF48B0F
BBBDE540
BDE0F239
BDDE7A1D
BD801125
BDAAC0D0
3D89AFE2
BE03676C
BC1662B8
BCBA3DEC
BCBACE38
BCE365CD
3C5C90B3
3DAA1209
3CD01708
BDD83A44
BE0DB84F
3DB8BFD6
3D519068
3D619954
BDC2E0BD
3CD97718
3D9F9B1E
BBB090A2
3DBE7C6E
BCC06467
BDB024B3
BCCB4830
3BE1FC40
3D5067BF
BDD5A11A
3D98336E
3C722630
3DE29562
3B8EF15A
3DB2F246
3E4F34D2
BDA0586B
B6BE4000
BDCBC016
BC7BE38E
3D2CE55D
BE28FB26
BD1DA606
3D4BB40C
BDDA11DE
3E11EF65
BE045A07
BDE35E44
BD0CFC13
3D4C1909
3D770C80
3D8BB064
3D95E27F
BDD80182
3D28B16C
3D8FDB8D
BE565706
3DBAEAA6
BD5F4F40
BD92E35F
BDCC9A83
3D97F67E
3E4C0208
3D981204
BE50AD9B
3D99EE4D
3E527D6A
3E25E751
3DA08A61
BD3DC216
BD10CBC3
BCFBA7C4
3D362FE0
BD15103B
3CA49DBB
3D842CA2
3C13732A
3DE2E868
3CFAA9E9
BDBF591B
3D505964
BD72172E
BDA43BAC
3C2B04EB
BC8D6716
3DB5C4A0
BCC6F924
BE2B9C71
BDC5B748
3DAAD087
BD9A0040
BE1BCAA6
3BC2877D
3CA01C8A
BE1D858E
BD9015AC
BDB6E961
BDE4218E
3D871B4C
BDEBF968
BD25F4A6
BE290B6A
BD5D2A81
3D265522
BE1D0D94
BDA9C09C
3DD51C8E
3AD99BB2
3DE37479
3C8759B5
BD7488E9
3D7AF830
BE32F0E1
3DC4FEB9
3D03293E
BE2E5A83
BD5B914E
3D319E05
BE400BF7
BDAE852E
3D533BB4
3CE85835
BA9698CC
BDCACA4B
BD58A398
BD9CB45E
3DA4ABA8
BD65B49A
3D617968
BC543A08
BDE15777
3DA55244
BD3FA0A6
BE01B430
BE0B0F0D
3A162880
3BE8B6A0
3D9078A2
3DE065C6
3C3FAEF7
3E231305
BC8A68AC
3DF155EE
3E09508F
BE57B7CE
BDE8394E
BC40D2B5
BDA2DAEA
3D94B646
3DB71EF0
3D8C6576
BD8C94D0
3E1E1071
3D71CAE4
3D8BDEF9
BDDFBDE4
3CAD2D9E
BCB2DF44
3C751D5F
3C2BE762
3E0972F8
3D0A9086
3CC16948
3DA469A9
BDB2282A
3D915812
3DD10296
3D2F6A11
BB38C6B6
3C3DBE42
3DD10727
3E064E1A
BDEFACE3
3E3532EB
3DAF79AF
3DD63522
BD62DE52
BCB68DB8
3D6FC08C
3DB02815
BDF51607
BDE7E35E
3DE6E38A
3932B1AA
BDA8AF63
3C828498
BD00AB2E
BD80F4BB
3D9FE8D8
BD48858E
3D5C94D4
BC82427C
BC9EBB42
3D3E96D1
3E02DB7F
3E13585D
3A79211A
BCC9C2A6
BDC43DA1
3C9E3B78
3D076AF0
BD800A5C
3CE12490
3B47A860
3DC0D4DF
3D5F52F8
3D18C767
BDB5DDA5
3CB75C38
3DC82CAB
BD5FB5C8
3D8ECD2A
3DD978EE
BC537C68
3DCCB11A
BE545255
BD355039
3D8BD493
BCA371E8
BAF69E4B
3D47F96B
3D3C1829
BDD67521
3DA32500
BD85231C
BBE00A90
BBB62A13
BE0BFA46
BD778530
BBB5089A
BDD3EB16
BD029C0E
BD778C6E
BDAD0C5D
BD332727
BD37A7FB
BD23D56A
BA31E286
3CB34DC8
BC9A9FDC
BCAE5895
BD810361
BD8757CC
BE1A824B
BD87F9D0
3E314975
BE22607A
BCBEDE00
BD24586E
BDFA13DD
BDC0BC17
3D87673F
BC0FD780
BDA05B92
BD532B1A
3D321719
3CF75DA8
BD5850B6
BDC94B56
BDAB7D10
BDEA94A7
BDFBF969
3DCDEB92
3DB0A1D0
BDDFD0CE
BD71A430
3C87517E
BD945B67
BE4BBEB0
BD0524B8
BDC4E369
3D15A9D0
BDBA018F
BDDA6AFB
3DCB52F2
3B115FE0
3CC31070
3DC30D39
3B74750E
3CB80659
3DBB63BF
BDF3E6CC
3D648F08
3DEBCE0E
BDD67F72
BDDAD2C6
BC8C21EB
3C74E53D
BD8374E8
3D7924EB
3D555660
3D64381F
3C984898
3DAF7F50
3D995D8F
3E1B96A5
BCFFF50C
3D7CFE22
3D294611
BDAEB7B3
BDABBB9B
3DA47A91
BD63F880
3D8C1AC8
BD54CE61
BD7C9186
BD508BF5
3CE46772
BDA07F46
3D65C273
BD362466
3DB87DE7
3CE5F518
BDC04088
3C5E13D0
3C8CD8A0
3C87FCC7
BD160680
3D9C238A
3B4989C0
3D24848F
3DD12A0E
BD11DADF
3DD84293
3D8D2AC6
BCF97CAF
BDADEE00
3DB779EC
3C63D0F0
BE34DE3D
3CC81AF6
3D947A0C
3C664D45
3DE8E988
BC359A3C
BC3256BF
BDDE8A6A
BCC5DA30
3D94F492
3D3BCD18
3D8E2EC9
BDCBFFB1
BD28EC4C
BE2D0AA0
3DAD5D7F
BDFE296F
BC9522DC
3DD36BDA
BD29C6E0
3C2EB787
BD9615DD
BD2EA1B4
3D36B5F6
3C393BD0
3D32400F
3DA135CD
3DDF178F
BDD7308E
BAA37820
BDB49951
3D9E9E9E
3D95196E
3DE0834C
BD84E15E
BDA4B983
3E1090FD
3D9A3C91
3D4CD46C
BDF2C734
BDB80974
3D662C56
3D7952B7
3C9B0C81
3DE7DE94
3E05B589
BDF04CE9
3DC0E052
BDEA80D1
BE3507F5
3DCDAAB6
3D1BC7BC
BD61A9EC
BDB0CD83
BDE4F019
3D32D208
BC2CDF68
BD8FACBA
BD8B6874
BD6BA1E8
3D86BFAE
3CBD0B15
3BD1FC80
3D82782C
3D5D9690
BD6260DE
BDD30507
BE13BCD1
3DCE0F5A
3DAD22F6
3DAB4E1F
3DA89A25
BDA1ECBC
BD0AC0B9
3BAF5BE0
BD9BBA63
3C06F7C8
3CE99F7A
BD331E31
BA88F9F0
BD2187EA
BDBAFF2F
BD65BA88
BDEE5F4A
3BC9FE00
BDC788CD
3D4A757F
BD10C10B
BAC0AE6E
3DDC4772
3C89A331
3DEFB0AA
3D3FF744
3BBBA2A2
BDC96364
3D9954AC
BDAE4888
3DD4BB34
BDCF63B5
BDC13B37
BC545164
3B009844
3BDECD80
3D818E58
BA8BF201
3D1F7972
3D5B7A8F
BD52B694
BDEEAF4A
3D180324
BD2A1906
BD8AEADF
3C16D2D0
BD133074
3DB2B0DB
3DC8D7F2
3A21F300
3E18B2DA
3DCAD5CE
3CF99F93
3D479385
3DF3EFE9
3DBC0009
3CD80D77
3D4C184E
BDEBD71F
3D265A88
BD13FE2E
BDD081A9
3DB12F79
3D132AD0
BD7FF627
3DBC248C
BCAA96DB
BDB8F2D7
3DE937E0
3BBCF252
3DA47A96
BD39FA55
BDD24A19
3CA14860
3CE03E30
BD89FC24
BD7D6C4B
3DDFC84E
3D314118
BD269C48
BC0027F6
BD25E43A
3D2512D8
3DDEB0AA
3D6AAB1E
3B138840
BD976107
BAF74FA8
BDBDEEB0
BD4D69F7
3CBEBEDC
3D954ECF
3C929AAF
3C928722
3D5DD802
BD32A1C5
3CC0CEE0
BC8FE7D7
BE00D6F7
3BB31500
3DE6EC58
BDC1E81C
3D99D494
3D10B16A
3D876F6F
3E0A91B6
BDCD67B4
3BD0C120
BA06BF80
3CBB6B96
3D521F0C
BB13ECB5
3D85F2BC
BCB51300
3CEFFCA0
3D2C2843
3D3BE8C4
BBC0B7F0
BD353524
BD020BFE
BD9DFA66
BD8D0A5E
3DB1F809
BDB4CB70
BDB5C9E4
BCBD0EBC
3CBCB1A0
BDAFED7A
3BCC00F8
BCE35EEC
BC5F2B88
3D249691
BCCCA395
BC1377A0
BD024047
BDA50914
BD717483
3D9C048B
3BA5891C
BDB6F501
BC1957E6
3D54A490
3DACC9C6
3DB6DC0A
BDA02AF1
BCE88F6C
3A375664
BBA79C69
BD8BA018
BC8BB129
BBB68740
3A8D2FED
3CEA8230
BBE475A0
3DE11A53
3CE1B26F
3D2384AB
3CA0D8EA
3CE4F896
BDC59D27
BDAB7329
BD96F47C
3D80E9AB
BD0D2D02
3D9F5782
3DA0A600
3E01E291
3D8210A7
BD3BB6D8
3D8E9991
BC697AC0
BC7AE377
3D33993C
BD8695C6
3CDEC2C0
3DCC6D3A
3C7A045E
BD6E66DD
BD4AC34D
3DB7670E
3DAE267D
BD8C49CB
3CCCE9A8
3D30A135
BDAC84D2
BE002074
3D3F5A93
BD1E9658
BDC6E675
3DD5D698
3DC49630
BD0DA434
BCC444B9
BD6A66C6
BD9B739D
3DA3F839
BCCCC1C0
BDC93F2D
BB3C94C0
3CCD71E0
BB6AFF1E
BDA9144A
3C700110
3D947CB6
BDD26F95
BD8B2EF2
BDA90A8C
BD33604B
BC35B0B9
BD11B3A5
3D7F8613
3D0E82FF
BC92258A
3D5FF3D8
3C6B33E3
BD54E0A8
BD6F7FCC
3DA44B4D
BDACB918
BDE43FA5
BD717BE5
3D848388
3CCE2AE0
3D5A80C6
3D008BBC
3D42A9DB
3DCADEAD
BD325954
3CCC0DC4
3C221277
BDA1BCE4
BDD1AAC9
BDF429CA
3A8AE83D
3DDE05E7
3DEA2B2E
BDD341F0
3D27B3AF
BDD79D69
3D98A466
3D3CA63F
BC8F734C
3D88B28F
3D8974F6
3C9547B8
BD30833E
BC9D83B8
BDCAB936
BCE1DE04
BDF36BA0
3DDE3485
3CA14530
BD63BEA4
BCC2E62C
BDBAEC7F
3D95E5F5
BE00F9DE
3D8E3A74
BC961688
3DAAA4A6
3D42FC2B
BDA696CA
BD83ED29
3DA2C2A0
BDE9312B
BDD8925C
3DC63E1F
3D9A3B7B
3DCBD5EB
BD171E88
3DE28AB3
3C9B0360
BCE71E1F
3D5F05F8
3DA26A4B
BD1C8040
BD440B48
3DBAE80F
3DE7F444
BD18204A
BD6C9133
3D59B230
3DE4310D
BB9E6941
3ACC19E5
BA15D768
BCBCA744
3DE73DA8
BD5595B1
3DDF8E4F
BDB8937C
BD692C4E
BD66673F
3CBE302C
BD6A2822
BC803885
3D8B5423
BD2B903D
BD89F035
BDF4D3EF
3BAB6340
BC3E05E8
3DE55842
3B9ACD6B
BCED8F49
BD9F289E
BD1FDDD0
BD37F622
BDB711B3
BDDBAA3E
BC49EE5C
BD6A563E
BD7777CB
BD9E6150
BD8C2CF9
BDE3913B
3DA69492
BD609EBF
BDD5C923
3DAEFE54
3D706F7F
3B9648D0
BD9E2387
3DBB15D7
3CD315D8
3DE8CDFA
BDEE3655
3C958F08
BD52BA3E
3C6020C0
3CAB25C8
3DCFE537
3DEB9354
BD90A747
BD88FA66
3DD2DB4A
BCE96380
BB916F96
3CCEC27B
3D662030
3D787C88
3B9A2250
3D6F8C3C
3DB63502
BDF0E966
3CF7D9F8
BCD34352
BD67CDAF
3D7AA14F
BDB75E77
3DE793BF
3D34879E
BC8A2C2C
BD208ADD
BB48BCCB
3DE14378
3D80B72A
3DA72BDB
3D9C3FFC
3BBE1945
BD873379
3DF6C5C7
BC88CD84
3C326810
BD51C202
3B95939A
3D309346
BDAA1DAA
3CAE01AE
BC5786E8
3D1A5DA7
BD39A23D
BD569232
3BB7CE60
BC90A0CC
3D6D2510
3DC53C30
3DD528B4
3DB32D95
3C343390
BDB372ED
3DEE6912
3D8C814B
3DC1D13A
3DCF12CA
BCEFC86C
BDB6C06F
3DC2C1B2
BDA6F84B
BDB648F8
BDD35C9D
BDB516AA
BDEC5E40
BC91B4F9
BCC4B268
BDAC25D6
3C6A5EE5
3DA1A70C
BDD926E2
3D1A264C
3D776022
BDD464E7
3D183CC4
BD1B83AD
3D7DE705
BCAD7127
BD2B0C5E
3D6EE0DA
BDE0777C
BC246058
BD2004B7
3CAAC55E
3D42326F
BDAE0FD1
3D9FDBCA
BD986C50
BC1DD4E0
BD84FF7F
BDE2F39E
3CD8AC40
3D4DF900
3DDE8E9D
3D5229B8
BCDAB733
3D93427D
BD61F1F6
3D57EC30
BE00966F
BD66735A
3D67C0A8
3D9FDE02
BDF83869
BC676171
BD9B823A
3DBCEC1B
BDB5D868
3DE91577
3D84A5FF
3BB0B530
3D9EC27A
3D15137E
BD57F34F
BC1DB26D
BD86DE2A
BBAA0B00
BD825537
3DE08FEB
BDE726D3
BD90D702
BDA2555B
BD3B59E6
3D70A9B8
3DA7419E
BDE9F7CC
BC013630
3DB7A028
3DD31407
BD7DD955
BDAB0038
BC6B3D18
BDA0C7D9
BD8EB46B
3B529060
3C1A290F
BDE3EA48
BD8A713E
BD0BFCAE
3CEE9346
BC15954A
BD44B5E4
3C60D4F7
3DA89506
BDAF3D42
3DC37368
BB31EAB3
BD7966A9
3C9A8D9E
3D8232EF
3CFD6E3A
3D797C88
3B870E2D
3DE39036
3D496E3D
3D8FFB4C
BDA89838
3DD69D13
BD5F05E9
BC3A5E90
BDD36320
BD5E602D
3DC94F89
BCC6FBBC
BDF35E94
3D25534F
3C43EA2F
3BE25955
BDE6EA5F
BD4BBA98
BC3894A7
3DAC855E
3CD100E0
BD5F333E
3DEA5732
3DEB993C
BC111FA0
3D6A65A3
BDA8DADA
BDB355E8
3DDBF046
3B988750
BCE36E17
3CE19631
3C9556C6
3D95A970
BD2CD0DC
BDA488A3
3D11F37D
3DADABAC
3C5E22C3
3DE434BE
3D501288
3DD1A9C8
BDD20AD4
BD1BA453
3DE2F0E2
3D4005A8
3D8B9429
3C7D09D0
BC91992F
3B9BC3C0
3D14B074
BD3B710D
3C8568D7
BD0EE334
BD7C1232
BDAEC466
BD42F2D8
3BCF8B80
BD7C5FBE
3DF956D3
BCDBC59F
3CFA05F4
BDA9554C
3B3D75AF
3B967B7B
BDEC40CB
BC2B2F8D
3D6C688C
3D59701F
BD70D49A
3DD4FE7C
BD60F27A
3D51F229
BBC93692
BD89FC20
3D9F74A2
3DBB2524
3C82B7F0
3D2C2B30
BCC64FCA
3DCB172F
BD0220CE
3B913B94
3DEF5B02
BD43C62F
BDB58B19
BCAC7B11
BD63D8F4
BD308C67
BD8C32E3
BD155C44
BD84B870
3C8F0088
BD12C090
BD876037
3DD574B2
BDFD4414
3DDD251A
3D8D0D06
3D9B24B6
BD89898E
3D828006
3CE727B0
BD80CA89
3D62BAA3
3DA5D54E
3D411E48
3DA870E9
3E1B982D
BDA5121C
3DA1C68C
3C75F509
BD8A8C9E
BD3157E7
BD0D1622
BC8652BD
3D17BED8
3D6C8258
BDD310B0
3C8BC77B
BD494CE1
3CAA5B4C
BD323DCD
BDB84FBF
3D635ACC
3CAE92E2
BDCE4F67
3CA9896A
BCB4A55C
BC206384
BD9A2E6B
BD2DD302
3D8C71F8
BC02ECFA
BDE5D8D4
3D8BDF41
3CC63629
BD1E93C9
BD546F0E
BCA63CD8
3CBCA470
3D08E81F
BD5B6976
BCEC4BD4
BDC60991
3C284340
BD9C6050
3DC84DDB
3DD9CDA4
BDDA3C8C
3CD7C210
3DED9532
BD08BA32
BD66DB8C
BDD94679
3DB413C0
3CD29E98
BD9B568E
3D31FD00
3DABCF48
3DEF4A11
BD5A6838
3D88E43A
3B22AEFB
3D77EF28
3DF4C100
BDD14A1F
BA676D00
3DA88514
3DBE0DEC
3D7950EB
3AD16B4D
BDD094E3
BDB4F23A
BDEDB860
3BF4A880
3BDEA7B3
BD6B186E
3D44D094
3C279AEA
3E10377B
3A142895
3D8A24A0
3D455B62
BDA5B6F6
3C848820
3DBB2441
BE0F373B
BDF0FA4A
BE0C2439
BDDBEF2A
BD138410
BDD50FDA
3E0FE97B
3DC29DBB
3D0E34F8
3D893431
3DAC8F1F
3D964AFF
BD5B235C
3DE206D9
3D81E6F6
3D29BAA8
BCAF147A
BD488ACB
3D826CF8
BDB77FCE
BDCC7585
BC53677D
BDDF838A
3C9E3F37
BD9AFF4A
BDA6345C
BDA72B6A
3CF7742F
3CB547A4
3DA43710
BCC88CA7
BE1919AD
BA816280
3DAE7E98
BCFA5E9F
BDA23E20
3D1C6858
BD53A690
BB8E0530
3BB3A19C
BD3022AD
BD4243A6
3C438057
BD190540
3C5EEA21
3DA0F923
BD2E9EE6
BDD7118E
3DB996F3
3D8C6511
BD754885
3DB45C4E
3D0F865E
BC1A241C
3E103D28
BD136BEE
3DC3ADAE
BD7178C4
BDDBCE13
BDABE7CB
BC8B05A4
BDC3453E
BE0D1414
BDB66D48
BD2D96A3
BE08E60B
BD8AE192
3DCF1F0F
3BCD08EE
3DDE790E
BCED926E
BD3D7C71
BD665874
BE065575
3C853141
3DC260AD
BCBBC03E
3D8E1431
3DD7440A
3D72424D
BDABE182
3D982CB0
3DB59789
BC45BD9F
BDD0AD72
BBD97911
BD939FE4
3DBE6677
3D30BBFC
BDAC74E5
BDAE58CE
BDA12833
BDB6B529
3DDE523E
BC96CB50
BD3115A5
BD5635D6
3DB3DED6
BD94C369
BD732475
3B9DFE49
BD28BE13
BDA398DD
3D8966A6
3DBE466C
BE07DE67
BD70603B
3E003EA3
3D80A30C
BD28712C
3D8E0E5B
BCE378BF
BC01DC38
BD944487
3DB12452
3DDB4C28
BDE0BCC0
3DA68CCB
3DA8445C
BD2C0467
BDCABF21
3DC03FCE
3D957839
BDE0EC8C
BD055926
BD92744C
3DC9BCD4
3C4C28D4
3DE2E46F
3DBAA3B6
BD9ABA59
3D6276C8
3D01AA78
BB0F2383
3DA42C62
BCE1DC66
BD910646
3D284552
3DC7C35F
3DCF0D90
BDA8601A
3C751428
3D480E58
BDD327A0
3D80A5A4
3D338301
BDB7A39C
BDA6A6DB
BC4DD7B2
3DC07752
BD82D4D7
3E09220E
3D817A00
3CA7791C
BD96F520
3D1A4C4E
BDBD18F0
BD252786
BCCFC888
3DBD35B4
BC9A2ED8
BD80F480
3DB5CD4E
3DAFD1ED
BD871B98
3D6256D3
3AD3D000
BC6CF6A1
BDD09D5C
3C678F50
BC9EFD6F
BCC77F98
BCE906DB
3DE24CD9
BB95B490
3D720170
BD01D2BB
3DDB0D73
3DE66B48
BD60F8C0
BDD55978
BD5A303C
BC20C270
3CCBAE7D
BBA6A4A9
3D96C097
BD021BF8
3C9372FD
3DD4A642
BCEC6FA7
BDA00CDD
BDD05DC9
3DC7C4D6
BC3D056F
BDE454ED
3D8F0396
3CEC581A
3D9400D3
BD7146D8
3D8BBB42
3DE1A41A
BD4C3DEC
BD44D2DD
3CFCF47F
BC83A550
3DA61976
3CB0FEC7
BDC14C83
BDE8E6C8
BD967BDC
BDE8FAE0
3DBD2953
BD3D31A5
BD11D145
3D8F533E
3DEFA802
3D906789
BC88F7CC
BDC70594
3CDEB888
3DF0C148
3C953B30
3CE56411
BDEB1124
3D5BEAA0
3D9224F6
BDF3B7B0
3DBC60DD
3D739D22
3DB954A8
3D369544
3DC64190
BD842D9A
BDBB6379
3D5AC1A8
3D6385C3
BD29066C
BDEEB166
BDF40CF9
3DB78BCB
3DB8C750
BCDBF6FA
BD8E1990
3D576C4C
3D735594
3C10F109
3DCFDA44
BD983A2E
BDC0554C
BD3E0D63
BDE7EB56
39E91700
3C719D0A
3D923898
BDAD524A
BD58AD4C
BD307D5A
3D9A930E
BDDC7A3C
BD8F5110
BD0B2D99
3D80E8B4
BD8BEBDA
3D4785C1
BD6E3CBE
3DDBC43D
3C3461B0
3D804A79
BCC6FCAE
3DE30BDF
3D22ED1D
BD734DEE
BD8BF1D1
3CC54A84
BDE42316
3DD5BCCC
BDA9DB25
3DBD6234
BDF0660E
3C964F3A
3CEF6DA0
3D869378
3D14E10E
3C452380
3D177A8F
3D2D504E
BC4D0B37
3DE15561
3CFE15D8
3D9C941C
3DD4FF39
3DC3E07F
3CDB2EB8
3DBC09C3
BCEAFB9C
3D0E0180
BD82BF34
BDF4D99A
BC135E2C
BD05AA0E
BDB8099E
3D2FC380
BDEA4539
3DCD4FFA
3D9818E9
BD864079
3CFD1EBC
3D8F928C
BDF4731D
3D908FC8
3D9138C7
BD834B4D
BD89D70A
3C6FD747
3DE49042
3D0A6B52
BD402076
BDF6A8B3
3DD11B43
BD2EE30D
3D709782
3C28E78E
3C1577DB
3D958A1B
BD5EFF49
BDEFCAA5
3E098BD5
3D5CD57F
BCC37068
BDA73572
3D3D4BDA
3DBEB034
BD84BE72
3DA3F6C0
BD104884
BDEC5E32
BCD07618
3DEA0B38
BC77CF86
BD3F8A65
BD6D71DF
BD90A0B5
3C7D5DC0
BDC12C97
3DC8D9B5
3CE60780
BC8EA0E0
BD4C8ACE
BD9EFBB0
3DB3567A
BDC5CD92
BC184C01
BD70363A
BC0600C0
3DD013E2
BD560964
BC3173F7
3DDBEC70
3B8A5070
3DBBD2D2
3D520E89
BD867393
3CDC2348
3D063E3A
BCA05AF4
BDE0C571
3CCA9DD5
BA491890
BDDBD944
BCBB9411
3DA29CB2
BC1BCF89
3DEE4952
BC8C8244
3DE07242
BD846F25
3DA958B8
3CBD381F
BCA472CB
BDD5C14D
BC9C68A1
BCDD302C
BD6AA04E
3CCFCDC9
3DBC7C0E
3CCAFD3B
3B5F745C
BCFD2A63
3D9868F2
BD1C0D1A
BDA6ED4F
BDA057CE
BDD4B2B2
BD8A3D23
3D8CE7FF
3D6C2727
BCEF7426
BD5F4EAF
3DD61268
3D4E1384
BCBB71D6
3D2C745D
BD85B9AB
3DC6D858
BDB3F0D9
BDF1FAE1
3CFF3A38
3D863573
3C794C30
BDA6EDB6
BD35F78A
3D94ED04
3DD55932
BDA71FC8
3DC2F031
BDCF2C80
BDD91F11
BDB34A33
BD1964A2
BD14393B
3DF1EE08
BDD66D9F
3C6511A0
B8BDBA49
3D13B1E8
3D624408
BD3F1FE9
3DD115DA
3C1C4800
BCDF2488
BD2534B0
BCB40C58
BD670F4D
BCB97EDC
3DD528F1
3D568840
3CC60E7D
3D83A660
3DA46F90
3DD1C585
BE029A40
3C20B07B
3DEC0BA8
BDE89F55
BDCFCB4C
3DBB3567
BCE03B9E
BD802E6A
BD5991C1
BCA2F811
3D5447F4
BDA84875
3DD7B5AF
3DAE14F9
3DF5AAA1
BD8F46A6
3D8658DC
3D9515FE
BD331983
3D0F21F4
3D49F7C3
3D47B114
BDA58D48
3DA8D8BA
3D9140D2
BDE0282D
BDAD2B42
BD1A18C7
3BCD2D95
3CFD93FD
BD2CF01C
3D923B32
3DDC2454
3DCEB24E
BD4F02D0
BDA885DC
3DD4B028
BC34DD60
BDE210AB
3D885EC5
BDBA7544
BD82A396
BD0F912A
3DA75388
BDF979AF
3DE13523
3DB35366
BBAE9870
BD73C17E
BDE9A670
BC0DFDA0
3CDACE9C
3D2E16F4
3DA9A13E
BCB3702D
BDD526A5
3C4DF274
3DD87174
3D20B678
3D6024EC
3DF05B4A
BDA1271E
BD30EF4E
BE01C3C2
BC9EB0A1
3DCA1003
BDEACA49
BD78C0D1
BD8D083B
BDA678C8
BC1C1EE8
BBBC0D30
3DB4AFBD
BDB2C4C5
3DA6CA0E
3CEBA325
BB37D505
3BE50C42
BCE23CEB
3D55B0C7
3DF58AE0
3D3F9451
BB9B8230
3BF017F7
BD09CF0F
3DA937C5
BDE73DD9
3C4A3B60
3D092349
BDC4B363
BD3C84BE
BD8E4478
BDFAD8A2
3CC67633
3DA66FB0
BD129649
3D766354
BD682209
BD937B85
3DD72E9E
3CB557F8
3DB14E4B
3DB77BC6
3DD0DCA7
BCBA5C00
BD96324A
BD89D2B7
BD14846D
BCFD879C
BCE054E1
3DD833A2
3DB631AC
BADA6F85
3C716970
BCE8FD15
BD0D64F0
3DC5B2A4
3DC53304
3CB51C90
BDE9BDF3
3C5B2AE5
BC8D8E6A
3BD056C3
3DBB1252
3DF5F3CF
3DA299AC
3DEDCA2A
3D8ED148
BD3E7029
BDD01BD7
BD869F90
BCD1C065
BC75FA47
BD241E48
3C66B5F5
BD7472F1
3C0795A6
3CDC368D
BC6591D8
3CEBFF05
3DBAAE99
3DD62622
3DF993F9
BDA6073A
BDEAE558
3C88FF76
3DDB20A7
3C33227E
3D98D9E2
3DA1A189
BCB4E4E4
3D9B6014
3A72D200
BDC39A42
BDB66606
BDBAC71E
BDCD30D2
BACBEE15
BDD4B704
BCE6C1EA
BD8E2499
BD8BB380
BDEADAD9
3DA26784
BD2C94A2
BDA926FF
3DBB6C45
3CE0A054
3D7F327C
BD7FEDC7
3D7E1BA0
BDEF21CE
3D5C5733
BBFE28DB
BDB47AA0
BDD92456
3DEE1B38
3D0B638B
3D773778
BD2F848F
3D005454
BDE505FE
3DDBCB5E
BDCE5294
BD9A3EFE
3DE120A8
3CDC5F68
BD03308F
BDF07C96
BD2971D2
BD4F21EC
3DB214A7
3D9CF313
BCD3900C
BD9EA6E5
BD0D7776
3CFB1782
BDC488B1
3DEE3F76
3886B8EA
3DB076EC
3D9FE5BB
3DB7ACB6
3B509A2C
BDCDE3A7
3DE37CB7
3D2059DD
BCCED58B
3D8AFF98
3D795F5C
BE185B25
BDC32307
BDEFBA31
3DB9F783
3DB07887
BB35BC40
3AC25F1C
3CECA933
BDE14ED1
3DE2AFFA
BC9C7BCA
BDCF1633
BD608F5E
3CE4A195
3DC4AE66
BC22CA3F
3CACA741
3D5D360D
BC372000
BDA17F29
BD8DDEAA
BD70232B
BCD32790
3C35B780
3D4C3018
BD1BA590
3DA19B6A
BCB68DBF
BD7B6065
BD91861F
3CF9C08E
BC085390
BDAEC5A3
BD41678C
BDF22DB4
3D940F86
3DC40C58
BDC0C600
3CAB8BC3
BAFF02AF
3DDE18D5
BCB5BC48
3CC0C8E2
BDF05067
BD78C2EE
3B037638
3D8A80C1
3DC66C46
BDC5F2E7
3DABF16C
BD8D02BD
BDA72569
3E056874
3D8A2C88
3DA47445
3DCB52E1
3C512BE5
BDAB08B0
BDBC523F
3DDF0146
3BA685E9
BDA94FB2
BD873556
3D3C613A
3D0741FD
3CE54FC5
BCC9998F
3D3A609E
BBD5DE2F
3DF5361F
BCBA12DC
3CC8B978
BDC5A347
BD9D8099
3D2A5A1E
BC26ACE7
3D8FF8A0
3CDD7CDF
3CFCBBA8
3D107BDC
3DA77DAA
3D673BCC
BC52DE60
BC8C4190
3DDF7EDD
BD720008
3DC1FFFE
BBC4ECC0
BD98BE6D
3DCF7885
BCCFE26F
3D836F17
BDD753E8
3CA6E5A0
BC2238AD
3D95C6D9
3CAF6238
BD140E6C
3DDE273C
BDB54689
3DABEB9A
BDF208E0
BC725DFE
BD9AC2FE
BD4F2ABE
BCD163F7
BDC6C285
3D9076C8
BDBBC095
3D7FD6D5
BCE9C891
3D9C6287
3E0051EB
3DE8BBC2
3CBD6538
BDA67532
3DF46D5A
3D9DA910
3D837FF1
BC411540
3E1FDE73
BDCE38EB
BE2EA0DE
3DC85592
BBCA1D23
BC69D535
BD8AB4C6
3C8AC558
BDDAF89F
3D65B39E
BDF8C97F
3D80F951
BDBB8CA5
3D0407F0
3D4D2049
BA1D8804
BC07A4F0
3D70F0DC
3D8BB928
3CC0C732
3D4214E0
BD85F1D3
3C929B58
3D48A844
BE05C28F
3CA9A3C4
BD8221D0
BDEE749A
3DA2EEEF
3DBDADC3
3D4BEE04
BD3B23C0
3DABCC8B
3BD484B5
BDC95C1F
3C29C26B
BD327AC0
3D887305
3DD9234B
BDBA3175
3DA9D001
BD4D93CC
BDC22C96
3D180BF4
3DCE35A4
3B3607C0
BDCF78A6
3DC6544A
3DAAEBA5
BC488C40
3DB62DF6
BDB38B03
3CDCF6FC
BD2722CC
3D431E63
BD067DAE
BD5F878C
3D939BA1
3DC2BCB4
BAF8A793
3D6D7A1C
BD91D704
3CE008AD
BD8185D0
3D3392C1
BB9A5086
BE14997D
BDC8E57B
3D5E101E
3D128FC8
3CFB9328
3AB8408D
3DC22875
3D93310A
3DB9530A
BC74C9E1
3D95A0FE
3DEB74E8
3C4911F0
3D6D9E40
BDC0A097
BE203A52
3BB9232F
3D43EDEC
3DB3F676
3D9F0788
BD630B57
BD5D690C
BDA3E436
3CE5AAD8
3C193FD0
BCCAF0CC
BCFA93E1
BD1086BB
3DEF7770
3D0AFAB0
BD4E6672
3D20F2AB
BDB3F097
BC22D40A
3CA85FB0
3DDA0BA0
3D458D76
3D643A59
3D42DC4C
BE1E7C3F
BC9EA824
3DE3A5AE
3D255AD5
BC5710E3
3C911F6F
3DA2408F
BA891DC0
BDAE3238
BCDBFCBC
BD97FE9F
BDBB0BB4
BCECCA12
BDC7E251
BE02EDC4
3DF97E08
BDDACB22
BD997080
BDBA1706
3D0AD49C
BD9AE3D7
3CBC722C
BDD7A9BD
3CFEB14B
BDBB069D
3D49B7B6
BB3808AE
BC5B0893
BD59B5D0
BDF5CDB2
BDBA4290
BDEA7F02
3D153C22
BD16C41D
3A25B415
BD8A2F7D
3BC8F920
BE029AAA
3BF495CD
BD863F5A
3DA384D2
3DCA3930
BDF04D70
BD496C90
BD9D05E2
BD86A170
3DF2AB50
3D14BFD8
B9C5606C
BCC21E5B
3DB49226
BB9A23CA
3CAA4248
B9AE1000
3CB56750
3DCAF6FD
BDCF93A6
3D819752
BDACAE73
3DECBFF6
BD3D796F
3CD883DC
3DA27888
BAF81BA6
3DDF847C
3DE91A95
3DA5AB74
3DBDDF64
3D7D41F4
3CDAA540
3DA160B7
3B3B6155
3D4BC8C4
BD88E2A6
3BDEE632
BA520995
BDA06A69
BD6256A2
BD7E2F50
3DE265F8
3C9CE08B
BD73A30E
BDC2D55A
3DA57D0B
3D1A4F5F
3DC443C6
3D4CE4CD
BDF36BBD
BDDC592E
BD4708DB
3DD26326
BDBDB2F1
3CA45323
3C15C980
BB121EEE
BDA8126F
BD880C9C
BD899E6A
BDE43890
3CAEAEFA
BD8CC0E8
BD10898E
3B064940
BD9B8DB5
BCDC7762
BDA02F33
3C449BA2
3D4BD300
BA03913B
3DE7C5F6
3DBDF8C6
3C4684B0
BDEA4BF7
BDD405E8
3C10A290
3D8065B9
BC9C2048
3DABA2CE
BDA4ABA1
3C3FBCA0
BD4F7BAC
3DDFCE22
BDD74408
BCF08CE8
BDEB39BD
3D88B019
3B294853
BC8B02D4
3C5F1F7D
BD559BAA
BDF34ECD
BDA6BFA2
BD6203CE
3CAF5C94
3E137497
3C034980
BDB62F27
3D9E2B14
BC6A6061
BD05A8DA
BDD693E9
3D92CC1F
BD18B8FD
BCD34287
BBF1D420
BCA93276
BDB8D772
3CA893D0
3DD9D2C3
3D3B3CA5
BD7B60CF
BD2B13EA
BDF68391
3D5CF808
3C8D9509
3D30C569
BCE69613
BDE37D5B
BBAD41BD
BD129F03
3C031347
BD3D8C7F
BD23F8B7
BDDBD586
3C58D920
3D8585AE
BC80036F
3DEA2D0A
BC55CBC0
3DDBAA51
3D669788
BD94361E
3DB8F197
3D93D7AE
3D95C167
3D4441B5
BDF3D40D
BDBF5B61
BD5707D7
BD9059D7
3DC99CAA
3D7B9268
BDE4EE10
3DA4281D
3CE5F8C4
BD012416
BDEE7AFC
BDDA355C
3C918300
3CA45AD1
BD82BEE1
BDB19E64
3DB93D24
3DA42725
3D6E67C4
BCCE3584
3D676558
3D273751
3E03041D
BD549B7C
BD79EEDC
3D918604
BC5EFFA6
BDABEAE9
3DBB101A
3AB830EE
3DD1616E
B927E400
BDF1482B
3E02D313
BDFB652E
3D77B8FE
BBD17319
3D51DC3D
BD0EA6B4
3CA9B530
3DE64133
BD9514CB
BD171C0E
BD219894
3DB764F4
3D4450B8
3D7EBE8B
BD861D83
BDF8B135
3DDC96E2
BDC7D8A7
BD32C734
BD5B8296
BDC56F5E
BDEC786E
3D9A6198
3CF2A581
3DD25C9C
BDD2D643
3CB168B0
BDED3E00
BDA0A521
BD0436E6
BD05F2A0
BDC0BDD6
3D962DCC
BD8FB013
3D1EFDE2
3D0A0AEA
3D1C15A0
3DC0F4EA
BD74E012
3D58B4F7
BDAB0512
BE00259B
BD3E3A1A
BDD88E61
3D1FB517
BD234FA7
BDBA38BA
3D60C987
3D8D3278
BDF55EDD
3C91831E
BCEA9B6B
3D5E5A15
3E0BD38B
3C35DFF0
3DCBBC85
3DD11E2E
3DAC5FFF
BADEA4C0
3D3AAC9A
3D5613B0
3DA291FB
BDCE9358
BD9C10DF
3DAA9C65
BD94838C
BDA12741
3AAD7A8D
3D04CAEB
BDB9B052
3D7E3846
BDAAFB64
3C5DA4F7
3D621F50
3D98F0CF
3D905323
BD845AF2
BD4D2199
3D997DF9
BD23F5B3
37952E14
BBEAD967
3DA74642
BDDEF324
BDCD5512
BDA9B7AE
3CE59408
3D889420
BD6C8E55
BDEF5274
3CB26978
BD864E8A
3D6FEFD8
BDE137C2
3D84092A
3CBF53F4
BDAB72C8
3CEB531D
BDA19C65
BDBB5EEB
3D94BB8C
BDD61160
3B993526
BDB3C0D8
3D0CB6A0
BDE15806
3D4BA5E0
3CC80CF2
BD0EE227
BD804E3E
BB6A3FBD
BD86BBD8
BBA90C74
3D7CC3A5
BCF1BA3C
BD907B4E
BCE58CDC
BD99C1B1
3DE9A40B
BD70E582
3C4DE339
3DBB7FE7
BD8F77F5
BDA8AD90
BAF3460D
3C9AF3DA
BD4C2AAC
BBFB7AB7
3CF7AB2A
BDBEF9A0
BDA17A71
BC80845A
3D09040C
BD301072
BD6297C0
BD95AF54
BD1DA7EB
BCBCB0E5
BDAD77DD
BB856D74
3D42C120
3DE95656
3D49ABC8
BD9A6465
BDBDF1EC
3D50EDB6
BD98EDA3
BBC6A433
3C726470
BD7FBE38
BD28B44A
BD46658B
3D9B1953
3A84A69A
BD9A0EEC
BDD18572
BDEF0BA5
BDA38DF7
BBB70010
3D9F3D10
3DAE2D5C
3DAB4520
BDE7187C
BD461F5E
BC8D5670
3DD50042
BBDE9DF0
BCB007AF
3DB0DFDB
BD900F73
3B96CED0
BC42A0E0
BDCCCD98
3DD2208A
3DB610C4
3C5A8C31
BDC30802
3D2DD288
BCA33D85
BD975CEB
3CA07926
3D11391B
3CA332A0
BB2C9B35
BDA4AFC2
3ADAD838
3CA48528
3D211DEE
3D8CA4FC
BDB5BCAF
3D65D06E
BD99BC40
BDAAFDE0
3DEED1B8
3D858C0C
BD3372B8
3DDAF582
3C22C5D3
3DFAE762
BDFCC6D1
3C86832E
3DBED825
3DCF8A39
BCD9EF7E
3CF3F4A0
BD9B805A
3C5D9D7E
BCD0DA3E
BBA02069
BD9B368F
BC2F737C
3DD14CCA
3DD1FE9F
3DAF5087
BB641B80
3D8BDC58
BDF037F2
BB866ABD
BC89F5D0
3D173762
BBBC6D10
BC46FF0D
3BFBA838
BDB679BC
3D15F05B
3D495E2A
BC8F597E
3DF4D37F
3C931700
BD77FFAC
3D96759F
3D83837B
3C248BF0
3C2A08FD
3C222250
3D9BD42B
BD2427CA
3BB5E5A0
BBB248B7
3D50CF5C
3E0AB50B
3DE11A19
3D8C30F0
3C77DAE0
BD3B046D
BDD35636
3C9BA9B9
BD94EDB3
BCA07475
BCF7731B
BDC5444F
3DE22825
BDEC007B
3C6261F6
BDA09802
BCA54F27
3DD5D44D
3D0B226B
3CE304E0
BC1BF4D2
3D8EFA20
3D7BC66E
3D1382D8
3DA23024
BD93C5E9
BD49E437
3DE1E089
BD08E710
3C8CA898
3C95B17B
3D4B97D6
3D08B718
3D35ECBD
BC2EFCBA
BCDD2477
3D5FD568
BD9C9E50
BD8C4D6E
3D115976
3B450E47
3CC72DA4
BC81FCE9
3CCF77D8
3D48CE6A
BDBDBD02
BDD1F2DB
3DBD9448
BDD0DA2D
3D1B0204
BDF05880
3D627336
3BD35E92
BD104072
BD7EEE2F
3D514248
BCCF937A
3DBA3D75
BD0BC024
BD0F5720
BDAB6978
BD90DBA5
BCE49762
3D8DB014
BC8A4005
3D839006
BCCE40FC
BDDA6454
BDC2C4B9
BDC8F4F7
BD0FD0ED
3C2006B0
3D1762A6
3D6BD1D4
3D87E406
BDD4E120
3D9FC8CA
BDFA617E
3D13141C
BDBEDD32
BD1C3090
3D226C2C
3DA92102
3D844F48
3DAEE923
BD09FBFD
3DBD7CC9
BD8C0E39
BD8E9E88
BD4D5561
3E0DF08A
BDB328AE
BD6045EA
3DA2F6C0
3DEB2EAD
BDF4704F
3D375861
BCBCA8F8
3D9D815C
3DA1D459
BCA69620
BCC256BE
B93F3F92
BD655426
BDE06F80
BC389A8E
BCA6F270
BD12CFC8
3D41D30E
BD88972C
3CB0B7EE
BC4CC080
BDE6A810
BD2978BA
3D977B66
BDFB6E86
BD6B7452
3D3D43C0
3AE089C0
BE05F5DD
3D6E0EFA
BDD10B53
3DA06727
BBADA3B0
3D0FC377
BCDC5AC4
BDB08D2B
3D5BA7A7
3D82BE44
3D930DFE
BC9B7BD9
BDAE807C
3C94B4B8
3DC32B1D
3CA8A26B
BD4F56A6
3C049DA0
3DA19670
BDDA2276
BDBCEAD9
3D8B41E0
BD5CDB6D
B96DFD52
BDEAACFD
3D944E15
3D89BC6D
3D07E48A
BD9229D7
BDC13F0B
BC279885
BD87C76E
3C2BECE8
BDB09BE2
BD863B3A
BCFBE8F3
3D362D1F
3D3FBCA8
BDCCFA6C
BCB19F74
3C97BBAA
3D638FA2
3DC7019F
3D46C819
3E0407D7
3CE8D41B
BDB81B8E
3C100EC0
3DBBEE1B
3C3EAF02
BD0C9D65
3DCDA7E4
3A83CB40
3C1C8BDA
3DC6BC3F
3D92334C
BCEB6E4C
BDE05A74
3CD9D3C0
BDB7F5D1
3DC74376
BE03B81F
BDA3BB9A
BD93228E
BDE94A63
BD98B3E7
3DC76CE7
BE1F211A
BC8C6920
3D0FC590
3DCB8A7B
BB0A6A4F
BDC5400C
3C97F89A
BDDAD350
BD00B388
BD6903A5
BDC8D6CD
3DB0CEAE
3DD6736C
BC3D7778
3D45AF99
3DCABC00
3E045543
BCE80A7C
BD2F9C83
BDEF6FD8
3C2863EE
BDC80191
3CEAE6D0
BD8B457A
3DA61642
3DE9B21C
3D82B2FA
3D727CC9
3D448D5F
BDE46B4A
BDA1FFE3
BD9ADE42
3B939C57
3CB67644
3C564633
BD93B045
BDA8A596
BDE13A7D
3DB53F04
3C4FFE97
3CBE447E
BDC7943B
B966B400
3CF47FF9
3D467EE8
3DA46C1A
BD8B63EF
BD37FBE5
BDEDE544
BDEB3358
3E0192B0
3C284090
3C99CD86
3D690DA1
BC9D1DC9
3E08FEED
3D326DAA
BDE3D302
3DD84CC3
BDDE2F98
3D895AA8
BD9D8544
BD70A05B
3D8D93B4
BDB52BC0
BD896412
BDF41372
3D1C3379
BD66D1B8
BDD7F766
3C0E0960
3E0C1019
3D5D2E05
BCECA9F8
3CE10C70
3D98F126
BD86DC53
3CD4F45B
3D659290
BD7462D5
3D6D71FA
BDC4590E
3DE98C7D
BD5D9E66
3CA9922B
BCF548CC
BDC32691
BDBCC7F9
BDB8BFA6
BDA4AB3E
BD470AC4
3D87C70F
3D400F6D
BB95A533
3CD8E8B4
3E0056EF
BD0B72F1
3E0CED80
3C8F49E3
BDBB0098
3DB078C6
BD9AB51B
BDA3A724
3D7F4476
3D62826B
BD4D01A1
3B8AFD6D
BB9C00C0
3DF13234
BDEF91A7
BA95E79F
BDEBB8EE
3D225F49
BCE18084
BD920718
3D1238FC
BDD16E54
3D3A8230
BD342014
BD8C28FC
3CD6F498
BDA86AF5
BCF39088
3CC0B5F8
3DA6C12C
3D45F6A4
BD19C7DA
3C626D6A
BD31D3B8
BD91D4C0
3D7F10EC
BC9F0EC8
BDD92A49
BD3A6AB0
BC707CB6
3D7A06BC
3DAF0ED0
3D27B75B
BD3787B5
3DACE849
3E030629
BD18C7FA
BDF7B834
3D6DE268
BCE2E9FB
3BBAD9C0
BB9F02B0
BD2E27EB
3D4805F3
BE1A4531
3DDDCAB6
3E0E3353
3D256518
BD9C49D0
BD64828D
3CF288CA
BD9924E4
BC40CBCD
BE0032A1
3E2A5E69
BE4040F1
3E50B2E5
3D92E53F
BD4AB3C2
BDC847EC
3D834070
BC6EB394
3D3E71E5
3D5D4CED
3C2B73DD
BC8EBDC4
3CFBBD30
BDD7666F
BDDC4AA1
BD4A8F9C
BCF6E5CF
3D9314A8
3DECD7F8
3BDFB5E1
BDC11ACA
3C250533
BDFF6193
3DB9B95D
3E5229DC
BC80D898
BDE0FC67
BE2645B4
BDF2CAC9
BDBB8CBB
BE2569DA
3CE4B518
3DDAA03E
3B107DA4
BBD188B0
3C1920F9
BBA21FC1
3DDA0078
BCF66C2E
3D29C780
3E3C3968
BD961078
BDCCCB00
3D4D1868
3CEA6F88
BC8470E9
BDBB5852
3CE99F08
3C9DC411
BC6C9BD2
3D4D9AF3
BBCEA5E1
3D96511E
BE056D91
3D7BA4E0
BCF370ED
BE2D08C0
BC38A808
BE04CC0D
3CE4B201
3BEA8992
BE05E3F6
BDC50B47
BDCC2978
3E0A3897
BD5685C5
3D330F35
BB66FDAF
BD06FD9A
BE18D799
BD9D776A
BCDBD9BF
BE36274D
3D6F661A
3E45774F
BD3054FA
BD4938D4
3CD379A8
BC34C3EC
3C92C211
BE40195B
3D75F092
3DF33892
BD8732FE
BDF908F4
BD8940F5
BDDF0A14
3D364B20
BD510E68
BCF2AFA4
BDD2F9BA
BDF04117
3DE3B806
BDC74129
BCFEF748
3DDDDE6F
3C9C26A1
3DEA0C19
BDA14780
BDD70BDE
3D1CCBA6
BD8529CA
BDA7B2F0
3E04BDA5
BD16361E
39EEC000
BCF56246
BD8FBA1B
BCB58B86
3DD79203
BD22E95C
BDC73088
BDDC9C5F
BE0EDDDA
BDEBE411
BB7717C4
BD25BB63
BDA7C8E0
3E285B4E
BD88E4B2
BD482C3E
BC9D83E4
39024600
3DC68968
3C87274E
BCC40838
3D51A9B1
BC475732
BDD91902
3DF51CF2
BCD38A5B
3DA6819E
3D52DC88
3D06037F
3D8F829D
BDF293CA
3CDBF273
BC2EE138
3D819F97
BDBCC3C0
3DB2C2FA
3E1CAA85
3D720558
BC1343D8
BDD64B56
3D18676B
3CA93620
BE1ECC69
BCC6D914
3D8AAEB2
BD574C63
BC9DFDE4
BDCCD84B
BE14DC58
3D8F3CFD
3E2F835A
BD3FAA96
3D150354
3E4743C8
3D99706F
3D044248
3AC8401B
3CFC1AA0
BB24AA8F
BDB1BC27
BDEF2FAA
3D38FB8F
BDA9DD68
BE3E0AF5
3DD5178C
BC81DF58
3D16C5E8
3E4D8159
3D19A18A
BC9664A3
BD1A18E8
3DF54448
3D07B58D
BE58614A
3DA5D7B2
BBE493A4
3D8C75C4
3D4F51A8
3BE9E6F5
3E53655D
BD82E4F6
3DFFD8EE
BD675246
3DABFFA4
3E0D0097
BE026FD4
BDAAF711
BC9E9A86
BE0050D4
BE1AEF0F
3DE4720E
BCFC9344
3DAABB26
BD4B049E
BDC5047C
3D90618A
BDA12D9B
BDF5E424
3C9181FE
3D0B2C40
3D94C6C2
3CF8E6F3
3E2024AF
3D16F909
3BAC0575
3D695568
BDC0CD63
3E59066D
BD7DFFBB
3D8E28AE
BDCFC594
BDCF0EB4
3DE23EA2
3E11F047
3D71BADD
3D785038
3D8D3C10
BDE27BAC
3CA1BD5D
3D0231D4
3D0B8FE0
3CC06BD0
BDE3C607
BE2D2059
3E1DAF8E
BDCA9425
BCB5AFB4
BDD4B0F0
3CBD9510
BDD4D6BA
BDD50D46
BD0A0882
3D8CD68B
BD7F7D09
3CD517D8
3B81D8B0
3E02AA80
BD825D26
3E43C1FF
3D8C5547
3DE97454
BDB04A3B
BDCB63D2
3E17A024
BDA212CE
BC8C666C
3DD3C93D
BE27587A
3C226ACE
BE0CA1DE
BD06AF14
3E3B5EAF
BE31CCE8
3E404F25
BC9FDE05
BD393B1C
BE4A427F
3E0238F7
3DACD0A8
3DE5A953
BDC77F5E
BDB80AC5
3DB3A6E2
BD19DDCC
BE2EEED7
BD1AF006
3D9B5058
BDF2C2BD
BDB71986
BD04A87A
3DAF4E6D
BD648284
BDE0B0B7
BE0232C4
3DD6A281
3D9B2E03
3E458280
3DC4C43B
BDBBD8F1
3CAACD50
BDD2D740
BDA0E49E
3DA42C8A
BD99A0E6
3B9B4151
3DE9FD78
BCC1CA07
3ABF641C
BB8D8560
3DAB3F69
BD08B420
3E1E9DBC
3DB60B4B
3D3CB9B4
3D6CB040
3B8A485F
BDAD55F7
BDC904FF
BDCAD9B6
3D271CE0
3DB1C1B1
3D83E049
BDBA3D09
BDCF6184
3CB69A8B
3C4858A0
BD49B2FF
BE1A2E87
3CCC2E70
BCEE1964
3DA0D3E4
BDCFB8F3
3CD7D637
BDFCE2E4
3CD876EA
3DF1B5FE
3BF8C491
3BE9D649
BD129A4D
BB781B00
BB799C80
BB80D424
BD04C828
BD821900
BD34E349
3E4F2E26
BDD256C3
3D45C1A0
3CCA1338
BDA49DEA
3DD24695
BE4ADF55
3D4887A7
BD0134A2
3D3E5173
3DB432F5
3D9CE852
3DE90C1E
3CB3D5C8
BDF1518C
BC51AEA8
3CD82823
3D48C48B
3DC76D06
BD516ABA
BD3CE748
3C0BE3CD
3DD1E775
3E3D02CE
BDB354BD
3B526900
BAA27EA7
BD933080
3DDD4118
3D84CD67
3DD78A4C
3D6609E8
BDAF2C68
BD7FBF39
BE618622
3D8AB183
3D621F50
BDDD9DA7
BDC05936
3CBD8965
3D3A1AE8
BCD8F0B1
3D8E43FA
BDF8D13E
3E37B3DA
BC8B35FC
BDE77BA7
BAF21A40
BDE5AB5E
3D598361
BD96D3F6
BDC90B07
3D9BF7AF
3D95AA43
BE01DD66
3E386563
BE1C32CC
BDC964C2
3DD62728
3E3D4508
3DE030C9
BE90D4A4
3C727375
3D477CBF
3BD094B7
BD9665DE
3C26A1B7
3DC9FB77
BDE89BB9
3DD343CA
3D3CA523
3CCF825B
BC8667D8
BDF66CE6
BD1E6AA8
3E4BB2AD
BCF94864
BDCC1B60
BE24F28A
BD562C57
3DBE62B5
3E4670C1
BDD4F04E
3DB7CE14
3E090345
BDBE98C1
3DBFF9DA
3B254B27
3CAED980
BDEEA645
3D2718D6
3C8D69C8
BD477D19
BDC11040
BE1D27D8
BBB2CF74
3D429CF0
BD07823E
3E92BC87
BCD58543
BBB5ECAB
3DC3726E
3D916717
BDA82DED
BD75BAF1
3E1B9646
3C534331
3E39E7B3
3D42E510
3C651689
3CCC91D3
3CE3BBE5
3E5BE42B
3D2B0746
BDC4C72E
3E02871C
BE0184B0
BD1DC487
BE13E003
3D6277A8
BD98C818
3D96E2C3
3D88AA6E
BD707099
3DA7DDB6
BDB9A52C
3E76FFBB
3DA74248
BD871BB8
3DD02460
BDF03281
BDD05732
BD94FD60
3E4C5E94
3E0F631F
3A93E404
BD1C24B4
BDB2456A
3CAC3B0A
BDA03DE0
BCB1E6BC
3DDC5FF2
3D75CDD4
BDBE1CBA
3E34CEAF
3B463BA8
3BC94960
BC20A820
BDB4FC8E
3D511C62
BCBE8D7D
3CC9192C
BDDC402B
3DADD2AC
BE0B929C
3D317677
BDED74D0
3D1B22B5
3CA25D28
3D75BB6C
3D6DB522
BD323FE5
3E03AA8A
BDE4C6DE
3DD819F6
3DBEACBA
BDA2D5D8
3DACD1CC
BCCA7A70
3DB562BB
3DAD1469
3DAD5A8F
BE00708A
BC67F940
BDB144BD
BC717CD0
3D8E40BC
3D6AEB77
BE03F006
BD501729
BCDAABB4
3D8A490A
BD434CFA
BC0F0BF1
3DDB75C0
BBDF4FCA
BC96B5B8
3D3B7126
3C8ECE57
BD905C76
3C73639A
BD47AB5E
BDAB9078
3DD4C354
3CBCFC2E
BD3FCDF9
3D2F7B00
BD6D4656
3D500762
3DADB6C2
BDC8C6A2
BE1F421F
BDE2B6E5
BD81AAFD
BDA0A5DF
BCB02C7F
BBF4CF6D
3E0594C1
BD91BFF6
BD5CDC90
3CF90C38
3DBC28D4
3E4746ED
BD36B295
BDCA6DAF
3CF0A2F1
BDADB5CA
3D51EA49
BDE9EE06
3D980D92
3D37C3FF
BD79431F
BDAB5066
BADE3DE6
3D4C76E0
BCB39AEC
3E3003F4
3D922F0A
3DE8BB47
BD9EF8B8
BD05EAA8
3D9E3AB1
3D3BED3C
BB018F18
3D61C7A7
BDC7E5D6
3D23A34C
3D0D5916
3CDD08EC
3DADC4A1
BCA42581
BD7C8000
3D7BFF4B
3CFF71A0
3DDE64A3
3D8158A5
BD4F6C82
BD4E63A4
BDC1DE94
BD8BC8C5
3ADD65C0
3D7926AC
3D5AF365
BD8526E4
3DB90284
BC45AE56
3D916002
BDB552AA
3D69E6A4
BDEBCBE6
BB16DDEE
3E2564FC
BE081549
BD5B52B4
3DF399BA
BD858F69
BDF5E25F
BBDF7190
BD105240
3C0C7DE0
BDBF0BDE
3D9BF0E8
BD59E298
BDCB0661
3DB471EC
3DD4D452
BDD98B36
3D1ECB4D
3D87C4AF
3D7311FD
3DA97244
BD1CB990
BD0236BA
3CB919CA
BDC933AE
BDC80269
3D49F444
BDA166BA
3C653F26
BD043306
3D92755A
BE74BFBF
3DA6E400
BDCD3503
BDDFA47E
3C174A3C
BDD580EA
3D92D107
3C30366D
3DEA6AEA
BDC712C8
3D74CF14
BCE908BB
3D2B4994
3D683FFC
BD39126C
3C8E83DF
BD554B06
BD981061
BDFC934D
BD199E1B
BDCF48CB
BBF72D5A
3DD198C0
3BCB1940
BB4E0FA3
BDA96BA1
3DC74274
BCDC743A
3D4237EA
BD62D827
3D9890CA
3D9D5E07
BD565765
BDC1317D
BDED369A
BB60507B
BDEE0FD2
3BC59C20
3E09ECE6
3C70D1B0
3D756958
3CC74436
BD09EB86
3C08A958
BCC1F441
BDDA2DC5
BCC29E3B
BD6F4045
3DEA7DC2
BC8CF644
BDF7DB9F
BD201836
BB7A32F9
3CBA0568
BDF4C234
3D200704
3C195E90
BD1E925D
BD1E8A92
3DF143AE
BD6EEAD0
3DC9434E
BD65E8FA
BE3287AF
BD041008
BD231ED5
3D462FD0
3C031575
BD3F773C
3DBFBE44
3D88FB28
BDA54166
3AAD8EA9
3DA359D0
3DADC1CB
3D3936E5
BDC4FE95
BDFA3219
3D0ACB10
3D9F69A0
BE0932F1
3D71A6E7
3D9704A8
3E1544ED
3CB26E9B
3DA20A20
BDB7516C
3D438C2C
3D31B097
BCF79FE0
3D86D5F2
BBFAF0D8
BDFB86C2
3E2C516D
BE26D908
BD5392DE
BDCB5CDF
3C92050C
3D8CABB6
BE13EB5A
BCEAFD25
3DB061C0
BD8B2481
BE10496A
3DBD8A1A
BDC29FFE
3D08FB9C
3DDAB8AA
BDEE9C5A
3D4E73BA
BDC5E4D5
3DA203E2
3C614B90
3C9AE1B8
3D7324C9
BCCD2EBA
BD268194
3DBE143E
BC27A6A0
BCBA1356
BD691EF2
BCCE3388
3E2E9622
3BABF820
3CEBB4C8
3B2EBE9D
BDF2B771
3A54516F
BDAEFC1B
BCF305F0
BDEC224B
3CF21540
3CE73437
3CB23A30
BD98B89D
BDEF972B
BD533345
BB12EA51
BCE850FC
BD3E7BDB
BD5251EA
BC728338
BD3C826F
BD62DEDF
BDEDE342
BD8CF9CD
BCB534A2
3D39024D
3DA9CF85
3DBFA12D
3DBE4FED
3D6E6ED4
BDA601F7
3D0C5202
BC99799B
BCDBC715
3D9472BB
3D55A3E2
BD3ED48C
3CC46FB0
BDEBFF5C
BDE913DD
3DD60C54
3D59A564
3D5E7FC7
BD80C486
BC247BCD
3C36E7D0
BD189FC3
3D877C08
3D873A78
BB15ABB2
BD9401F3
BCBD4B19
3D57FE8D
3CD93C20
BD5BDCF0
BCC0E5A7
BD1CA88A
3DEBA51A
3BDB4C89
BD2120A2
BD8F476B
BD452152
BC7B2708
3CE12DAC
3D6E55FC
3D826AD2
BC571A74
BCC29960
BD53C520
3D227F7F
3DD64064
BC7A661C
BDCC6C7C
BD547CEB
3D79864A
3DEC1C15
BD24AE4F
BD99D92B
BC8234B3
BDAB5F30
3D50537C
BDEEAAD8
BD426A31
3DC74832
BD94F58B
3D2D420D
BDB494D4
3C26BFB5
3CB2F34A
3CF16FA8
BE007FCC
3D98595E
BD0FCED9
3D544110
3DC2A10B
BDE13FBF
BDF104E6
BDEB4251
BD7817C3
BD5825F3
3DC919F3
BDD202B9
3BA22220
3D9B5219
BD8FA455
3D827D39
BDD15DDC
BDEA83B0
BDF58E7A
3DA54B22
BD8C4CD1
BD5AD290
BB1FCF00
BD81986B
BDEB8AA4
3DEBFCDA
3DB5D631
3C85BBE0
3DD9F362
3DBA1E78
BCFF7DF9
BD055EF5
BDE2C47C
3DEC437C
3D8FE094
BD0F8D3F
3D621B17
3DBEFBC2
3D308361
BD5135C4
3D959098
BAE1A8EB
3D8DEC56
3DC14DA5
3DBFDD43
BB108820
BC9093AE
3D86E970
3D35D0B6
BDD45B79
BB2E9C16
3C6323C1
BD2F83E1
BB89E345
BD1FBDF6
3DB69B51
3DC44486
BDAB235A
3DDA6263
3DEDA9D3
BDB9B145
3C96CBCE
3DD86FCB
3DB3B539
BDC7C09C
3D9397F9
BD5BEA8E
BDB1BE1F
BDDB2A70
3DFB6BFA
BD620A02
3C2AF793
3D9AA6A8
BC24F8F7
BDB4CECD
BD230626
BD586326
3DF10B20
3CFA2548
BD85F803
3D77E899
BDE20A1C
BDAAE0AC
3DCB2C66
BD58092A
BDD77E5D
BDA3C07E
3D4C6EB0
BC403B33
BDF2EF2A
BDDA0E00
BD0E3866
BD497E6C
3D15FE1D
3D883B97
BC0AF210
3D775997
3D2FBDF4
BD04C576
3CECE46B
3D8AFBD0
BCB9FB10
BD6FB9FD
BD00959F
BC1BDEEA
3D7F2238
BDB40DA0
3B0E9EB7
BBF37496
3DC88F5F
BD5E6AE4
BD37E3C3
BD5CE444
3D54DE5C
3DC558B5
3B7E9AE4
BD1350BE
BC1211F8
3D3C563B
3DF8BF45
BBB5C243
BDB5368F
3DE4E82B
BCED634C
3DB5245A
3DB85C8F
BC8C7F96
BDD1C8EF
3D623969
3D1FFF4D
3B4E4DDE
3D8C664A
3D5689A2
BD13F7C6
BBF07624
BCB34B9E
BDD02A3A
3D1C18C2
BD74DD41
BDD0C8B8
3CC44368
BDC8256B
3DBA7C46
3B5AEDE4
BBB944AC
3DA04D3C
3D247816
3DC56F51
BD6999EC
BD98F12E
3D3B9378
3DC85468
BD2F3C22
BD93543C
BD8E292A
BDCA5A80
3C667A80
3C9F4000
3D743901
3DD2D9F8
BD298519
BD7F2B95
3D887818
BDC3067D
BCBB3419
3D13CF80
BD8A91C0
3DD2BFD0
BDE7FF41
3C9E808E
3D924DE6
3D336AA6
BC2D61DC
3D9B07F8
3DCB5623
BD8EBC3C
BCBC7D1A
BCFC7800
BE02BF9F
BCF89414
3BB55805
3D90A0FE
BD804442
BC7F8355
BDB0FB50
3DF0A2EE
3D94F3FE
3DA5717E
3DA9731A
3D892366
3D761F74
BD978268
3DD08343
BD7A23CE
BD47558A
BD651908
BDB11FEE
BD4A8FE2
BD97A8D6
3DCCE249
BD8121A0
3D84C335
BD41803A
BD8A91B7
BD7291D8
3D30DF3C
BC713440
3CB9250A
BE019288
3DDA64E2
3D9DF4B9
3C81BCA8
BCE53AE5
3C5AE0BB
3C8CF80E
BD2D2884
3DC03E61
3D7DF230
3C83FBE2
BD82EFEC
BD608434
BCE8CB41
3DD5A84C
BDCEDE78
3D06DAAF
3DDAC918
3D3F24F1
3D9E032D
3CF53808
3D2D8150
3CD2FB60
3DDA8E51
BDBE7884
BDB28707
3C985B80
BD4BDB71
3DE18E91
BDBE48F7
BDB549C0
3D88241B
3DDB6359
BCB43808
BC2518C2
BDE48EB7
3CF2C4EE
3DCE2DA4
BDC7D6BE
3DBDC083
BDFA8AFB
3DB2A4EA
BD33CC2D
BD6D9846
BDE51E90
3A1811F5
BDDC499F
BDBAEA79
BDABE32A
3C42CC5E
BDCF9C8F
3DE16556
BD4DF2A9
BB9FBD0A
3DD6866A
3D4E9DBD
BD228946
3BF13B4A
BB179A97
3BB03100
3DDD8748
BDE399FF
BBE21A50
3D11B485
3D97C58E
3DB96EE0
BDC2D452
BDD407A3
BD1B9CF6
3DD4E87C
3DF26960
BDCA6692
BAAE2780
BD6C146F
3D48B749
BDEEE7D5
3DB6CC24
BD9F4C27
BDE2F242
3DCCE4C0
BDA28E2D
BDB6E8C2
3C074990
3DA4A5F8
3C2CA2DD
BDE765C5
3CA9BD0C
3DF237E8
BD5D86BC
BDFE9438
BD45A49A
3DD7E17A
3D45ED26
BC2B4DF0
3CE1EDA7
BD8563A2
3B260A6B
3D2AC194
3D35EA1B
BDB541CB
3DD7C825
3D96CB58
3D2DD064
3D90BB15
BDB51B23
BDD01160
3D1FE6F8
BD3262A3
BD891369
3D9AE58D
BD37FD20
BD99E942
3DF17BBC
3DF1E676
3B49277D
BB225AE0
BC86D459
3DABDD0D
3CBF0349
3D8CAE47
BDD3CA5F
BD5CF38A
BD489F96
BD112DBE
BDCBC183
BDC28A22
3D426B78
BDBF1276
BDB50D30
3D6510F4
BC9AD10A
BB298760
BD12B1CB
3C0D8BE6
BD84252A
BD516006
BD346BE2
3DDB7BEA
3969AE66
3D9F04BE
3DE2EC5A
3DEB23CA
3D58AC79
BDCCCEFE
BD5A1EE8
3DDB5306
BD324620
3B4323DF
BD5E18B0
3DE3A5FD
BD89E733
BC990D19
3DC8A2D0
BD9970C0
BCA928EC
BDE5CB11
3C053E80
BD18FBCF
3C255160
3A88B93F
3B59F2B9
3DA06ECE
BD95BCC9
BCA21520
BDB21CCE
BDE6DF24
3D1F199A
BBC5BAD6
3D01A19C
BD972270
BDF7448C
BC94945E
BC0125F4
BC65A0FB
3B7EEB78
BCB50228
3D1B7619
3D9850DF
3D30C976
3DEE04A8
BDED980C
3DE6F206
BDEE2085
BD0C09C1
3C11B5C7
3E069D96
3C83AE77
BCD835A8
3DD94880
3D2E03C5
3DCE0F72
BD574EE5
BC7CEFE8
3C49CF10
BD1575CA
3B769A40
3D2FF76C
3B13FF00
BD8FA6C0
BDED2699
BD2F7F00
3C05B9BF
3D00D22E
BD620A8A
3CF38820
3D49C594
3D65394A
3DE07905
BDAB8DB3
BDDA6E00
BDE478F5
3D34A972
BD2F4C2A
BD02B6A0
BDEF927D
3DEBE77A
3DB3718C
3D97E065
3D6781CE
3D0C9F90
BD7FA758
BD33989C
3DA42B46
3CBB8778
BD860D58
BC9AEE78
3C9A5A04
3DBA13CE
3D92C251
3D6E5F66
BD836188
3E259295
BD630B84
BDCB7E3A
BCF48699
BD17C6FC
3CEE700E
BE1D95A4
3DA9C3D2
BD140C58
3D363D60
3D8776DC
BCA4F603
3DA437D4
3D5C3253
3CA64E35
BC339165
3D2E4724
BDB3B8B0
BC2E7B74
3D2D716C
3CE3B544
3C1E5210
3D3FB918
BC482628
3C3BDCA4
3D886343
3D87D330
BCDCA36B
BD09C310
BD934C50
3D79F299
3D936D7D
BD51596F
3E1CDDEF
BCA7D690
3D678469
3DC146C6
BD0B1F48
BD9EFB39
BD9A98B2
3C869FD0
BCEF133A
BB8D9BC0
3D53CD3B
3D6E66DC
3CEE8338
3DD4F0BD
3DC8F3A6
3DC8F92C
3D812D71
3D6DF044
3DEE61A0
BD729D0B
BDA64196
3DC425F1
BDF25023
BC7B6A89
BD973814
BA076889
BE0A7DBE
BE025E07
BC9BB588
3D7C0F80
BC49EF01
3D9C6B3A
BD7889D3
BE16A30E
3D9D6917
3C0F5EB6
BE0153A6
BD6FCAB9
BD885215
3E001ACC
3CE1ECC0
3D1C8D4A
3D887A73
3CCE0EF8
BDFDCA0B
BD764C1C
BDA1C6FD
BDCDB1E9
3C8E864B
3E3A35C2
3C4CCE92
BC581258
3DB0C266
BCC08014
BB3BD384
BE1AC2D8
3C526DE4
BD725DCC
BDEC14FD
3CD859FE
BCCBC758
3DA10B7C
3D51ABBC
3D9035F8
3BDA88A0
3D5BBA15
BDA34B7C
BDDD95C8
BDA19196
3D8BDB44
BDA70D9C
BD38837E
3E0845B8
BD37EFB4
BD9DC47A
3D630E59
BE038DB8
3CE74A08
BB92F821
3CCDA578
BCF0216C
BD1C951E
BC404023
BDE29122
3BEDBACE
BDD699A0
3D64BF07
BDB7D73C
BDCA533B
3DD5127C
BC49E4FC
BD73381E
3DC34EC6
3D847459
3DCD0770
3D8115FC
BC0CCDC8
BDCFA93D
BDD22344
3D275CB7
BDC257FB
BE075EFE
BCBCFCF3
BCDCCD66
3BE8ACA3
BBBF7527
BA85C788
3D85C8EC
3B497D8E
3D75941D
3DE20AF9
BD8A70E3
3CFCF4C8
3A8ABD09
3D4B38B4
3D815568
BDF72A0B
3BEAA0E0
3D68B4FC
3DB350BF
3D81EC9D
3D80D530
3D387EB0
3C9ADCE0
3D0853C7
BD8E9D92
BD55E9B7
3E2D070A
3DA8A3E0
BD2DBA01
3CD40309
BDAFCC0E
BDA4A7F0
BDB87D4D
3D9B8541
BD7C5508
BCBB8CBC
BC3C3A88
3D96DDB0
BCDB97F2
BD1F0BC4
3DC3E5E1
3D940282
3E2B224A
BCC021D7
BD9A8894
3D1472EC
BDDA79CD
3CC9C168
BDC957C0
3D05CC94
3CD057A6
3D092202
BD15EB0C
3D905E83
3D8B484F
BE0397B2
3DDC62C2
BCD0C323
3C2B770F
3B9EAD6A
BDE53BEC
3DBAB04E
3D4C4CF2
3CB8EE54
3DC8E6A1
3DE0075F
3D535B00
3D9FF770
3D8232CD
BD4EB789
BD1FBEBE
BDA59BD5
BD6FAF4F
3CFFE50C
BE199192
3CE1C61C
3DEED340
BC320E99
3CAE3E68
3D414BC0
BDAE3CB2
3D0A0D12
3D1635F4
BDA798EE
3CEF21B0
3CA8438C
3D35BA18
BB200440
3DA91136
BCB4EFFC
BCD6D428
BD9984D3
BDDDBE6D
3D9F7F75
3DAF530A
3D5AD958
3DD16330
3CF53A4A
BD9B22AB
3D6AFF9D
BD9E4079
3DB875B0
3CEC0797
BD64D721
BB5AC900
3D2B6076
BCD75498
3DA4CF2E
3D3788EB
3D0B8330
BE2AFDE5
3D859748
3D410C8C
BD90DC72
BCD36CAC
BD005D91
3DCB1C56
BE223B8F
BD7600EF
3D5BA736
3DEDCCF1
3D9764CA
3D8B5CB3
BD961498
3DAD1060
3C02E4CB
BC39E03E
3C9029B8
3DF2DB0B
3D7ED249
BD8A66C3
3DAC94C1
BDA45E62
3D929DB4
3ADB6E40
BD08A78F
3D9AB6D6
3D5E86D1
3B11DB5A
BCBD2117
3C1BF3B0
BDA1E006
3D245F94
3CECC947
3D1F8C08
BC28E820
BD75E3D7
BDE03347
3BD97620
BCF0F442
BCB8C004
BD121EE7
BC899901
BBD595EC
3E03AE4E
3DEFBA09
3D3734A0
3CB5169C
BD6187A4
BD9F86A8
BDBA3C4D
BDE85282
3D712994
3DAEBB99
3CDE3590
3D3FF203
3D0E800D
BD899029
BDEC4AD9
3DC47B60
BB18F694
BD24730D
BCFB6A54
3CC43F48
BD4F27A7
3DDBA089
3DC9CA92
3DA929CA
3DA8B19E
BDC683D1
3DB95419
3DA30829
BD765573
3DD040F1
BDD1DA8D
BC216716
BD72319C
3DB47D87
BB9D468E
BDBD731D
3D915678
BE0ADE7A
BD8760AB
BD948ED4
3DCE9C68
3DA3836D
3D1B9B94
3D29C64E
BD50441A
3D35E460
BD3293B4
3D0E6ABD
3D8DE503
3CA532A7
BCFBFBD1
3DB1559D
BDDC9286
BDD6B5CD
BDF7F464
3D2216BE
3D7B7678
BDEB9F10
BDC1B076
BDB358B0
3DE492A3
BD834284
BCEDE714
3D7C4F3C
BC2FC4A8
3DA1FF0C
BDDB0190
3C2D6C44
3D400924
3D2BE580
BD87B8A2
BBCA8D05
BD35B10B
3DB4D50E
3D67A2D8
3CB993D0
3D654918
3DDFBE91
3C783270
3D98C83A
BC4A4018
BDC8B7C9
BD818F1D
3C6E7D50
BBEC1409
3D5977C6
3D2B5BB0
3D6F5EBF
3A05D500
3D85A76B
BD9CCB97
3D4FAEAA
3DBFB89E
BDD3EDA2
BD36695A
3BB0C7A0
3C79AA61
BD488260
BDF07932
3C39C25D
3D627FBE
BD706225
BDCBDFED
BD36C8FB
3D36049C
3DC71216
3DCBE66D
BDAF33D1
3DA52BE4
3D18BF35
3D9BBE3B
BCFD5B9A
3DA86BDC
BA8FA87E
3CDF399C
B8DFEC00
BD22BA87
3C404F5F
BDDF4B37
BC85F0B4
BD25FF77
BDF362E4
3CE281B8
3D98DFD5
3D140CF4
BB433DA3
3D480E8B
BC8CC97E
3DD4CA18
3DD7432C
BDA9C5BF
BDF75DF2
3D0F1FE4
BD12BEC2
3A3322BF
BD26B79D
3D299BCC
BC811CCD
BD561650
BDF7E106
3DAD4AEF
BDA4CD86
3D816AF3
3CE671F8
3DC7BCC4
BD0B3B5F
3DED5AAA
BDAA39B4
3D82EF65
3DF544C6
3D1944AE
BDA09DF8
3D2721AF
3D407A4C
3D94E12B
3DCAD91E
3DC048BA
BD241B0B
3D847A88
3DA342A4
3C83D83B
3CF662F1
3CECFEA1
BDC9553B
BD9A19E1
BD01C403
BDC4BE6E
BDCF089A
3D01D87B
BD189D8D
BC873202
3DA325F5
BD50EF72
3DB4AB44
BD9D7CC0
BDFB5F2B
3C5CC43E
3D6DD2E9
BD4BFE6E
BD65538A
BCDCE784
BC3608E8
3DDD363A
BD65187C
BB1D78B0
3C3B79D0
BDEA0153
3CA460AE
BDC14E92
3D826CCE
BDC44C60
BD80E7E4
3D04B660
BDAF1B32
3D5A35AB
3CF1FACE
BDA026A3
BD00B8F6
BD5FC098
BB8B5EB8
3DE01694
3D86D9F0
3CE26318
BDED504A
BD3EF334
BD7EDDA5
3D91FE1C
3D8CA92C
3DDE1122
BDBDA5AE
BD2FFB6A
3DA21D25
3DD96033
BD5BE580
3DAF490C
3DD7A113
BD83E4D4
BDB187C0
3CEB0280
3D396438
BCD37D3D
3DD2FC4B
3D4BE529
BD6ECABA
3D2D501A
BDB20480
BC87D99C
3DDABB67
BC00A290
3DBCA41E
3D90728D
3CFC0851
3CC078AA
BD11403E
BC6A6943
BBE107ED
BC4E9D38
3D811236
3DB35B02
3DD5B2D3
BDA7949D
BCAE8999
BD3BDB03
3C4B1930
3D03CC20
BD1D7FA7
3CA1F3A8
3DB88272
3D88C9EE
3DB7F689
3DD1B4D4
BD54A71C
BB7F7900
BD62D34F
BD3CFB28
BD6456A4
3D2545EE
BDD3E4B0
3DC08823
BDFB4C5F
3D495F3C
3DECC6DE
BE085415
3CA26D2C
BD08E496
3DC2F5CD
3BD30E00
BDB471F5
3DC7E260
BD6D5018
3C39F22E
3D6077EC
3E100D17
3D0F797E
BDBEA9FA
3D123D5C
BDCBCC4A
3CCB6636
BDAF3265
3DBC4E44
BD41BE73
BDBDADA4
BD609D7B
3CCBF4BF
BC0F1062
3C47A18B
3D13E640
3D979ACE
BD63036B
3C54CA3A
3DC1D8B3
BDF7F5F7
BC0C7D49
BDDB7CC7
3D3F0BC1
3D90996E
BCA4ADEF
3D4787FD
BDA6CE47
3D4F7DCC
BD80269C
3DDA908B
3CDF4E9A
BD1F50E8
3D0CC7A2
3D4B0535
3DD494AA
BDD1A1EC
3DB36740
BDD2E38B
3DD55BE1
3CC39864
3DD1FD12
3DAB6295
BD0C375A
BD3D6C8D
BDB8A171
3D8DF372
BDCA9A60
BDC37E01
BCAA7B58
3D531690
3D402FFB
3D22AF30
BC90297C
3D122574
3D925308
BD77470E
BD7DCDC6
3DDAC9CF
39306400
BD9A6CBE
BD23C20C
3DA32E58
3DE9621C
3C2E9F48
BD83C47E
3CE76300
3DE1787C
3C9986A1
BCC3891F
BDB4960F
BC1A1A60
BC022073
BD4E4150
3DB074F6
BD0220A0
BDBCE273
3D6DEC23
BD821355
BD707D1D
BC7F0088
3AEC7620
3DD8D1B6
BDE929F2
BDB24B74
3E04702B
3DBD4D73
BCF39B79
BDD823D0
BBB77F4E
3C8D42F1
BDA808B3
BD00AD64
3D18C058
3DD3B355
3DE6EF6F
BCEEAC44
BD522006
BBB6AABB
BCBA696B
BD7889D8
3C160D91
3D62B40E
BDD89B93
3DE0BD24
3DC0D7D6
3D99D677
BCDE8A00
BD7B1B19
BC4E0150
3CDA8CD6
3A17E10F
3D801EE3
3DDA9BC7
3BC5A451
BCFB31F7
BDF13B87
BDAECAF9
BD3CDC26
3DDDACE4
BB162377
BD9D4331
3CB85C27
BDD43A39
3D610F44
BDE38E7F
BD9CAD40
3D087582
BDEF77AA
BC948719
3CD5BA00
3CE99640
3D9B849E
3D4C85E2
BD206FC2
BC8A1B99
3D9BF224
3D7B25E8
BDB3B0E7
BB14B10E
3D9FAA20
3D5F5458
3D9AF319
BDC712F8
BDBE93B2
BDB73EB7
BCF1B097
BD4885A8
3DC314E8
BD0A242C
BDD20B67
BDAC513A
BBC7ADAA
BD1D6016
3DC7F4BA
3D4F2C61
3BBE34D9
3D2DC44C
3DC4A3D5
BDAF7999
3CD3A0B2
BDE63F0C
BD44772A
BCBD2AC4
BDD7A57A
3DA0F3BC
BCF1EFAC
3B8A067C
3C9A24E1
3DB45F53
3CC3B83B
3D2CE3F4
BDDC2ED5
3D94A500
3DD5EA16
3D4E7530
BDAC96D6
BD353C12
3D643E08
3DF7EAF8
BD78D649
BBCDD3B0
BD355BC8
3DC5096C
BD56F91D
3D88DD0C
BD2550C3
BC23E5F8
3DB53B98
BD9F2263
39FDBA9E
3D2FF7E0
BDAF9216
3DB1F03C
BDC00F62
BDC3952C
3DCF2E2E
BD880DFF
BCD236AC
3C722A90
3DBBF61F
3DD3E67C
BDD6462B
BDCEFC64
3D92DBC7
BD9FE0DB
BD956BCD
BC88C487
3D9F285E
BDEF37E8
BDC5F292
BC4F4EB8
3C10C4A8
3DF344B6
BC800738
3DBAD99E
BD97BA03
3CCC45CF
3CC6D2B6
BD70DCB0
BDAF76DB
BD47D946
3D1FE889
B87BF084
BD8936D6
BDB1F807
3DA7FCAC
3DA37D7D
395EE600
BDEDFCC4
BC2FBBC9
BD316658
BDCEF5D4
3DD3C72C
3D23F421
BD93B4C6
BC3137AE
BDC8EB71
BDA344D6
3D280428
BD18FC38
3BA431A1
3C44A24B
BD1EC6E6
BCF672E9
3D93BC76
3D875086
BC084E4B
3D3073BF
3DACEAAA
3D832AAC
BAF3E780
BDC0F0C9
3C182DF7
BD49280C
BC44B556
BD2A0368
BD9759BB
BDBEECB6
3DD44768
BDABBA6A
BDBC4978
BD811A0F
BC9A5816
BD17D524
3CB65D86
BDB078B3
BD82C37A
3D592A17
3B92F1F0
3DF43028
3A444680
3CD2071A
BDE030D5
3C39D910
3DCC29F0
BDD2E3B2
BDA1326B
3D40CD4D
3DE30E00
3D0A6786
BE02CA2F
3C1046F9
3DCB374E
BE012D7A
3DB6CD54
BC73B132
BD77084A
3D86D4F0
3D0250E4
BDCC8A91
3DA9CA9A
3DB8DE68
3D53FBC4
BD808265
3CB8F217
BD9BAC3A
3DB355A4
3DD50EF1
3DECDB44
BDA6E7D9
3DD9EE23
3D7BD7AC
3DAF3E82
3D9ABE20
3DE4E814
3D797504
BC9DF2CD
3D12D3DB
BC581D08
BD0F7820
BDAFFA52
3DB3CA1D
3CAA498D
3D99370F
BD9CD472
3DBB17A0
BC2C9D60
3DE148B3
BD728DDE
3D4AEFE5
BCD0CA84
3CBF0518
BDF29500
3CDEA383
3D8F58FB
3D8B1C09
3DEC9EB6
3D476418
BD41FABA
3D39CAEA
3D92DE92
BDB2608F
BDE979B0
BD975F42
BDD2D1CD
BDBB26D8
3C0C4AF6
3C915540
BDA69293
BDF0BA65
3D989667
BDD5F57A
BCF506D1
BD802591
3CDC7E90
BD449967
BD0858EC
BCE03675
BD2DE356
BDBD634D
BD8DEF6D
BCF89A8C
BD59BFFD
BD810C77
3D95D4CF
3DD38178
BD37B324
BB4EC44E
BDA795D4
3D91717E
3D912E11
3DC04B06
3CB71978
BD1E6A75
3D4F4DB0
3D30E50F
BD3CF2D1
3C9ED55B
BDC4D38D
BCA67650
3DCA14F4
3D62529F
BCA95764
3CD21D80
BC518C02
3C4F9031
BD7E791E
3B99E6CB
BD553B96
BCEF6AEA
3D7E1848
BDC55ABE
BDD32D5C
BDEF92F8
3DBEA939
3C1B9774
3D4633A8
3D7A1618
BE0C93A8
3E1140DD
3D6A42B3
3D16D990
3CD5FE88
BD836B67
3D6D491D
3D74CA62
3C4B8042
3D8D04D5
BC919F48
3B4567AE
3C0D65D9
3D1E3785
BCA7EEB0
BD82376B
BDB13EA7
3D387B3A
3DA6378B
3B7CA637
3DA54D7B
3DA4F167
3DC709A3
BD31FE70
BD5D8D12
3D823DE7
3DD65100
BC547AA1
3C965C95
BDC92BDB
BBDDED78
BD11F03A
BDAE08E6
BDEA509E
BD9BEFA3
BD3A5D09
BD3FF0D0
BC87D34F
3DC92428
BD409E01
3E116D7F
3DC49000
BDB0BC98
BB3C39E0
BD46D39E
BD104FC2
BCF0D1F5
BC8B1591
3DAE3B24
3B8DA520
BD0D1736
BB329F0D
BD639A1B
3CF602B7
BD94C40A
3C38FBD0
3C89B906
BD556A0C
BDD2E29D
3C889725
BB1CC9A0
BD523BE8
3D94C2FE
BDA472B7
3A2A9285
3D9444EC
3C55FAF0
BDDD0333
3D9A03C4
3DB72AF7
BDCE3B18
BDE4C6DB
BD31F474
BDB8C6C5
BDB23963
BDCC3A3D
3D698D72
3B2EC140
3CC3B4E8
BD267D15
3DC28B0D
3DA9F061
BDB509CD
3DE51DC5
3CA38BA4
3DDCFE7C
BDF4DF7F
BDB17F86
3CC5DDB8
3CB0C3BF
3DC6F2BD
BDA09F9F
BDF04B25
BD20538E
3DBD7EA4
3CAA6100
BDDD7BD1
BD616105
BD949F80
BDF1E225
BCE40E4B
3B01FCB8
BCA4EF94
BD393A38
BDCB1B3D
BD930789
BD77A497
BCCFCC22
3D233DD7
BD221EE9
3DDF97B0
3C1B7F56
BD9CD2D0
BDA43710
BDA2EC0C
BCCF1025
3D8B3E50
BD7C33CB
BD541DA4
3DF8B275
3DAC7439
BDDC7EDF
3C79B7D3
BDD0F837
3D1F1BCB
BDEAC8B0
BD8EB263
BD8EF1AA
3D8A7AD5
3DEB22C7
3DAB700A
BC80D584
BD5BA384
3CE552E3
3DDBAA5E
BCC6FB05
BD144991
3B9721B3
BDC849A8
3D2C7DD7
3C98395B
3DA5B9F2
3C98F970
BDB773B9
BD53B08C
3C54BB5E
3D15B15F
BC3F74BF
BE058297
3DD8BE98
BDA66A4F
BC8CBCE7
3DE7F722
3DB99959
BDC82549
BDC947E3
3DDA50D2
BC18036F
3D29DE6C
3D56E3BF
BDC2C598
3DB96590
3D17EA35
BDA5A3BE
3DD2B43F
3DD4AB80
BD98675B
3DE7B8EF
3E03200F
3CBF7B70
BC917A88
BCA74298
BDC29B7D
3D4596EC
3DD7CB7D
3DD504E4
3DF50C50
3DC53DBC
BC7F1C08
3D91DFEF
BDE4AD75
BDB59652
BD0C4956
BDCD8B80
3D07D8C9
3CC18D6E
BDB0228A
3CE27EA5
BBE39C80
3BF78B60
BD0AAD80
3DAB0F7B
3CB8C8CC
3C7323C8
BCF6CCD4
3D1E61E2
3B585140
BD6C1B57
3C4C0F80
3CB0A4CA
BD246304
BE06D247
BCA8C7AC
BD6BA448
3D201490
3D272E04
BCFA4980
BD266E47
BC3C113B
BDCD5E55
3DD7DD97
BD9C59F2
3C82149F
3E0BED31
3D9159BA
3CBC5A23
BD85924E
3CC26FA6
BA78D9CA
BD9AB92C
BCF093AC
BD602B2C
3C391B8C
3CA1AE68
3D285521
BCF016B2
3D8626EA
3D1CE954
3D9FA6B3
3D9A3189
BC0DCE48
3DDA4EB9
3DA4BA94
BDF7B843
BD7BDACA
BDD14480
3D542A94
BD9CAB19
BD287D5F
3D27F087
3C29B5A0
3C401280
3DBACDD0
BC6582F9
BD66D5DE
BD28AAE3
3DF442B0
BC5CC1CC
BDC2154D
3D0CD118
BD28B260
BDEA15FB
3C04448B
BDA80E13
BDCA97C7
3DBFF06C
BC6954A4
3DB9111E
3CD63251
3DC90144
BCB4EC38
3DC1162E
BC3B03E8
BB1073F8
BDFE2B2E
BD06C548
3C78DAD0
3B127F80
3E28FF3D
BDDFF05A
3D003421
BDC8CE7E
BD36C5D6
BDE8E27C
BD6F76C0
3DE6607C
BE03DCAA
3D30F288
3A627105
3DAD03ED
BCABACF0
3DBDD9E1
BD0174B5
3CC04BC3
BD8F7A9D
3DB7BFE7
BD9FC2B0
3D172476
BD949613
3C206870
3D45278A
3DA4F591
BB92DD30
BD020BFC
BDCAF9ED
3D933469
BCE08268
BDB7F296
3DD979C8
BD73913E
3DC6FFC0
BC226118
3DF3E073
3DAF230D
3DF5D284
BD461DD2
BDDFF4A0
3B4A0620
3D69B0C2
BD60E4CC
BD908884
3C58A760
BDB6B360
BD8C9E13
3D67FC8C
BDE4C1B4
3C6CC100
BD4D9138
3D9DFDAA
3D2072A9
3DE18671
3D34EBDA
3DC37A8E
BDF2233E
3C0FE380
BBD788BA
3D9742E4
BD0A5249
BDC2DB31
BD408058
3C2513E4
BDCE9AEA
3C65864E
BDC647AD
3D986B78
BDF0ED4A
BDFD39E6
3D3D3DDA
3B42C81C
3C1BC210
BD92DBF5
3C9B7D85
3D9F0EC5
3D386EFB
BDC8B83C
BC172619
3DD6E5BB
3D365948
3D88CA1D
3D806DCC
BC840AEA
BDEC9F8D
3D6057B5
3DA79D02
3DE082DE
3C90C938
3DD4C103
3DA5D860
3D0237EC
BD980109
BDE7E80F
BCC66545
3DA99F17
3D0A10F6
BD36C00D
BD943825
3DB8BA1B
3DB8375A
3D33A7B4
BC330D50
3DB047D7
BD048947
3D2C0678
3D688DC4
3DE8FF0E
3CD43947
3D85056E
BD8A0D70
3DE5D72A
3DABDBE8
3D8A15DA
3CE06621
BC6245F8
BDAC0029
BDC3AD31
BBD4ED78
BDFCCCA3
BD84E1BC
BDA396CC
3DC5039F
3DD044E7
3D3B7088
3DA39626
3DB145EE
3CDFA1D0
BDCC1A38
3E06C1C1
3DCDEFA2
3DE230F9
3DE67E41
3DEB08D4
3D11ABCC
3D79CF41
BDA3D631
3DCC2C1D
3D714DE2
BD339B54
3DA2779E
BC462070
BC5747F5
BD84389E
BDC69EEC
3D8B114C
3D4EBDDD
3CC163ED
BBD18CE1
3D591A90
3CE87F48
3D7600F7
3E180332
3DBF6027
BDEF112A
BDD96BC3
3CE4A69A
BB5A65BA
BD24715A
BCB27790
3CC34208
3D365448
3DE9FE84
3DA1BA0B
BDE133F6
3CC8DC30
BD9E2E4C
BDBE2753
BDB80680
BCD05642
BD7A99F1
3D1ED544
3D92B8B0
3DCE185D
3DB22BD8
3DDF03FC
BD5B9059
BD516658
3D5A1668
3C5D514D
3DBDFE4A
BBAA0BEF
3D7C1610
3DA91740
3D92DF3E
BD16D9D6
B9890575
BB387260
3D52BF71
3DB9A9D8
3DA75E25
3D1D54D0
3DAFBA94
3C8008C4
3DB5DB8C
BDC2D09E
3DB173D7
3AA9D5EA
BC365639
3D312962
BD858F89
3CAFB999
3E082FEF
BDE2E558
BC9C283F
3CC938A8
3D32D7A8
3D6DF442
3E0D772C
BDBC4E1F
3D11303A
3C5F1CCE
BD06BDB4
BD9DB171
3CF399F6
BC38C360
BDAC1BB5
3DD6D74C
3C2974DF
3DB9C0FA
3C5B74B2
3DC5BB64
BD9F9100
BC879FD5
3C3C27CF
3DF91B6D
BDE98C2E
3D1D6D20
BC580A86
BD547D72
3D7CB560
BD354159
BD8E8EF3
3D8871E6
BDB652D5
3D26D18C
BC657980
BAF8F45C
3D125BF4
BD9D691F
BD895576
BD38F21A
BDB266A1
BDD44694
BCB23BD0
3CFCE23C
3E0DF2FE
BDE8C160
BDE93D63
3DA7DD05
3BE51091
3D863C6E
3D6769A1
BD14E713
BD47E2FE
3CCB66C8
3D5F28A4
3D931F7D
BD57C584
BD73B73B
3C56AA50
BDDF72DA
BE03B898
3CEE819C
BDF754DB
3D46052D
3D4290F9
3D3E16FB
3D205135
3D070DD0
BD282A64
3AB6A28C
BD3BD27D
BD712F20
3CE271CA
3C325BF5
3D98DD94
3C59BE00
BD9EAF47
3C502F37
BDF0B586
3DCAE0EE
BDA2ED40
3CDE4CA0
3DDE03CB
3D181AEC
BC893924
BDB38675
3DBFAE1E
3D6439E4
BD1EE5CA
3CE0D430
3BC20AB6
3D50F7D4
BD8A72A6
BDF0F0E3
3D6EEEAC
3D958416
BA410F6F
BCE11574
BD1EB494
3CE77224
BC6E7DAE
3DF35EA0
BB13D6E7
3CDEF010
3D883136
BD917E7F
BCE7E5D7
3C6EF774
3DC0B1CA
BDC553A4
3D863565
BB182680
BD1F4506
3D9F2F22
3DCB05A7
3D9F8323
3D886652
3D42FBC6
BCD39D40
3DB44960
3DD2912C
3D9C73F4
3CAFFDF3
3DD90795
BD3167F7
3CD79D17
BCB3DAFA
3D73629D
3D2FD737
BDCAEFC5
3BAA354A
BDF321A5
3DCCC691
3D021449
BDBB3368
BD41F0A5
3CFF869E
BDFE1546
3B56EA00
3DC05856
BD44F2AD
BDB5A6A0
3D691F40
BDBE80C8
3DDB9478
BCE4D9A4
3D11C597
BD534F0C
BCD6D43D
BB305622
3DCEADF5
BDD41643
BC035DED
3D4F344F
BDDBBE1D
BDE6BE07
BD894FCE
3CF730AA
3D9B5F2B
BDE283FD
BC51339C
3DADD4F0
39B66A7D
3B06A816
BD1C9736
BD0E6415
3D991014
3B2A07EC
BD2CEEAD
3CF151B0
3DED1BAC
3D9083F2
BDC908E1
3D4EE15C
BC8CA08C
BD511A19
3DCBE3AD
BDA1F09C
3D82C3AC
BD8A8F65
BCFC1F66
3D862316
BA990421
3DA87EFD
BD971D7B
3DA96BC8
3DDD3E33
3DB9CE8D
BDCAE490
BD6422F5
3CBB99F5
BCB9A1D0
3AA2A124
BD596205
BD91591A
3DC81136
3D6F82FE
BD63235B
BDDA4DA4
3DDFD06C
3D9E87A4
BCAC89C1
BCF15DD5
BC06F200
BD94FE42
3B7EDF57
3DC7048A
3CF2A193
BDC5E1C8
BD7A0596
3D356E65
BD333F68
3A609E00
BDF27509
3CAF11C8
3D787E0C
3D89DF7C
BB640BA4
3C664816
3D934830
3D5075F8
3C987948
BCE26239
3CCCE43C
BDBCFE74
3D9C3398
BDF2581C
3D951336
BE067EBE
BDD48F85
3DD2EFBE
BD96CB7C
3D5549C4
3D944A57
BD66E68E
3C9FED93
3C79658F
BDE7A54D
3D118475
3C7C7560
3CB9C909
BD69D876
BC8526A4
BD0D68CC
3D21A387
3D626B51
3DD95B28
3DA280E6
3C8DFEA0
BDB42D10
3DD9EDC2
3CD9DBF7
BC9BD08B
BCD7B3A3
3D427963
BB12C007
BD2E24FB
3DBEA068
BDD0C513
3DB04A1C
BD095285
BDF7D7DD
3BF2286A
3D401E1A
3C4DECD8
3C52D56B
3D70E358
3DD9824E
BDE8DCBA
BDA562E5
3D23EC40
3CBE9DFF
3CA782D6
3DE4C294
3E062263
3D753E50
3C5E2361
BC441685
BDF0689F
BA1EAB47
BC894DC4
3CA93E8C
3D84B7F9
BDCD6A52
BC205CD0
BCAE827F
BDCDC24A
3DA2701C
3C33335A
3D36E5C8
3D6B6FBE
3C78F63F
BDCCD740
BBB1B178
BD6C2ABA
BDC49159
BD86A441
3CD0F658
3DD4BC22
3D230893
BCBBA789
3C5FD500
BCA78CB0
BCFBCA67
BDB209A3
BDE2A081
3E0D6043
BC8FB148
BD3BAB73
BDE27B92
3D9CC53C
BD5A089B
BDD62D83
3D8EF0EC
BDE6F932
BD22E0F0
BDA44FBD
BDDF84E6
BDDEAED4
BC4BF2BB
BCAE1F9D
BCF3F169
3D9ECCC5
3DA9F5CE
3D645E86
3DD06325
3C79DD2B
BCB71FC1
BD9E6EEF
3E118D0A
BC9C3527
BCD400A4
3C922250
BCFEF9BA
3D91E074
3D727ED5
3D6F3094
3D5E1888
BD0CE30E
BDB3A25C
3C947DF8
BDF238F9
BD5858CA
BDB454D0
3D2A7834
3DF25AD6
BD4681FE
3D58A7E8
3DA2DB46
BDB7CA4C
BBF319BC
BD2772ED
BC4551A9
3DAD9416
BDD29FE2
BDCFD114
BDC1E7FB
3DA6A3C6
BD7729A7
3DF4A2CE
3B913F70
3C0D5BB0
BDDF9230
3D8EC848
3E1A039D
BD1EE84E
3D854BF8
3D8B77DA
BD02C855
BDB2F214
BD9ED25B
3DE3AD2D
3DDC96C5
3D3E437B
BDCF1266
3D04BBF9
BDC1AA18
BDF15944
BD284B64
BC7468F6
BDE05ED0
3C322EED
3DC2D377
3D64386F
BD112A3D
3C9585A0
BDCADD62
3D83F4AA
BD84E82A
3C16E854
BC9C06CB
BE038633
BD2D47E6
BC1A70AA
3BEFED40
3DE1780F
BD77387B
3C51D8B0
BDAF0525
BDCB14BE
BE0149D3
BD5B042A
3D21EE53
BD2A223C
3D7E2D3B
BCF7560F
3D23B05A
3C966CF7
BB373825
3D836CCE
3DF048A2
3D41D6A4
3DF22AAE
BBE6B91F
BDBFCE2E
3DEBDD72
BCBE2AF5
3DA346B4
BD470EC3
3DA468AF
3D9AA016
BDEB30B9
BDD32F1D
BA3017A8
3DE33385
BCF26670
BD319372
BC29B780
3E0E848E
3D25BE03
BD9F419A
3DCFA65C
3D937033
3CD4322E
3D0395A8
BD91E538
BD4F5C10
BDBC1678
3BE26B2A
BD1682F8
BCD2C0DE
BD2FEA45
BDABD562
3CA44529
BE09C5D9
3D2F8FFD
3D820B6C
3D91A2F6
BD73B8E1
BB8C2B01
3BABC512
3DA92F32
3D95DC8B
BD549ACF
3D544D1E
3D821C1B
BD32F740
BD9035B5
3DB5597F
BD137616
3DC2DCFC
BD2A61CA
BE17E42A
BDA03A7D
3DE3B3DA
BD9AC17D
3C3B33DD
BCDB64E9
3CEB7688
BD2FAC4E
BD11E154
3D69A530
3D3B1090
BD9FCC93
3D3B17BC
BDE3A98D
BDEDAACF
BC87F200
BC071FA2
3DA8FE81
BDFD8FB2
BBC79760
BD687326
BD939789
BBBFF31A
3DDEB54E
BCF724AD
BD16DC9A
3D824614
3DA98C67
BD1E4CBD
BD6AB066
BCC8BC51
BC589540
BC9865BB
3D7ECB54
3D31D951
3CDC7890
BD70E965
BD6F7384
3CCB2FB7
BD274808
3DB18DE4
3CE89AF1
BD19B716
3BDDFC00
BDC8BE7C
3D210838
3CDDDEF0
3CB2F569
BDAB8AF3
BD43B511
BDBF4046
3D723FB5
BD7236F4
3DEDDEE2
3D82D193
3DF06908
BE1D259B
3D62C3E2
3CEC07B9
BC512F0C
BD229EA8
3CC6EEEF
BD8A9CB6
3D599E84
3D9D8380
3DE1A7A7
BC5EA212
BDC84587
BD75DC5E
3D9B8CAC
3DED3328
3BE22215
BAA49831
BBD8331A
3C862A23
3B9076D8
3D5A096D
BCF413BC
3DDB365A
3E13655F
3D8AF9D1
3B024640
3DDF40C3
3DCDEDC0
3DC7D575
BD9D9DC7
3D64FA60
BD9E624F
3C8EAD70
3DB7F391
BD897F19
BD8DF43E
3D3B8F10
BCB37191
BD842A28
3D85EC53
3CDF6790
BDA6F97E
BDA66005
3D6DB970
3DC3E6D8
3D8721BD
3D593E20
BDA69879
3D83323F
3E0451DB
BD7CB8D0
BD05FB1B
BD1202A5
3D365D2F
3D5DC337
3D644EC0
BC65B710
3CFDB4AF
BD11DE1F
3D98086A
3ABEC245
3D5BB7B4
3DC2BED9
3C7BFD80
3D96F519
3E066E07
3DDFB36E
3C490D84
3D698E1E
3D985EFA
3CF796F0
3D8DDF36
3DCFE959
3DE71B9C
BDDCEE96
BB41BF40
BBB56B12
BCF54453
3DC11E4E
3C56D9A0
BDD1E500
3DD2973C
BDC10AE4
BBE5B886
BDB0184E
3D0F4EA8
BD1EDA70
3BAE59C0
3B9A5B92
BD85EC8F
3DC1D834
3DDA256E
BD5F7E10
BDA32343
BD888463
BD64FBCA
3D7028F4
3AE1A440
BD11B9E0
3D47F1D4
BDC26F8E
BD280D90
3D8F82F8
3DA7E37C
BD6139D1
BDCB54FA
3DB78EE8
BD126772
BC636822
3DD0B42A
3D20EDFC
3D3E3E1C
BDD091B3
3E464CB2
BD14FD06
3D8A6018
3CFBA92D
BE0BD39C
3DDFBADC
BDAB92C0
BCB78477
BA92534A
BE07AA81
3E1635E9
3DC050C1
BC358880
BDD3BA12
3D8D9300
BB84F8DA
BBFC410E
BDC45F89
BD8F1C83
3D8986A8
BDC4B017
BC4E34FD
BC8DA7DC
3DE6AA7A
BD6BF409
BC5E1BE4
BDB4E005
3E4EEA3B
3CF76CB0
3D222D35
3D7265C6
3DD53536
BCC2EE3A
3DF5134B
BDF69B17
BD833A5B
3C669020
BD62BDBA
3D473A5D
BD1B0868
3D3942FC
3D735325
BC189168
BE2AB187
BD810AF0
3D245404
BBB0A552
3D4ACB28
3E2EC118
3DA0C098
BB692840
3D407888
BDD47032
BDE732E9
BD8B8974
3D907510
BDC86F9B
3D2DFCC6
3D58DC7E
BD922E89
3DE9E7A5
BD5D63C1
BD0B17C8
BDFC1CBE
BE1383ED
3B16C28E
BC225959
3DB55309
BD9E1B9C
BE09B55E
BDEFBB1E
BDFFEE61
BD34C248
3DDB528F
3E1B35CA
3D8C25D9
BDDCAFC8
BD6AE3E6
3D807982
BD043695
3C2C0259
BDBBA24D
3DFAC5E6
BE369B0B
BDA4AE08
BC58A6C8
3CD3D028
3E14655B
BE2C9E32
3BEFE8EC
3CBE3300
BC8C9CD4
3D25CA82
3DD7484E
BDC39D7C
3DAEB0B4
BDA104B2
3D1F36F8
BCD80F7D
BDAEBDB9
3D711998
BD225488
3DAE35BA
3D4C6BBB
BCDC79E2
3E03DED5
3CC94510
BD8B693C
3DCF0426
BD0F0B52
3B613F00
BD8810BD
3CC009B8
3C26EDF0
BD65E258
3A88B95A
BE22D289
3E1C3066
BD9193AC
3DB1BCCD
BD80F142
BD8A3279
3DAF0968
BD9CA1D1
3D3D9202
3A52FEEA
BC2A6852
3DDE8E8C
3E02E5C1
BDB7AB76
BD40828E
BDCE7C87
BDE51854
BDE28175
3C031F2A
3C628A1D
3DEA3D95
BDD3D61A
BDB26EDA
BD8C334D
BCF9B23C
3D1011E7
BD9A7417
3DE30902
3CEF3229
3DE5CE58
BD852E0C
3DEE635A
BDA94FB4
3D0AF0D8
3C1D7620
BD2B548C
BC85CC2D
3D8F7BB2
BD2C00D2
BD187EED
BDD7F352
3D670C45
3D8CC47E
3D666AA1
BDAF9726
3DFD2BDE
3D021A68
BE0D8EB3
3DC427B4
BCA42EE0
BCBABD32
BD120B56
3C63AC70
BD9E0DCB
BDEAB259
3DECD0C5
BB522B12
3CAF5EA0
BAB160BA
3DD50650
3E04B72E
3D85227B
BDAEE0E0
3D48EF90
BCEE4B18
3DBBE0F7
3DD79EB1
3D9233DE
BD98F13F
3D766BBD
3DA53D2E
BCBCB491
3B7034BE
BE037D08
BD9480AE
BD9931A0
BE19DD77
3D8D8D60
BD883D36
3D26A701
BDD6F6AA
BDCBE111
3D0D2E6D
3B7BB8E9
3DE8D632
BD1D6296
BD1703BC
3D8D0042
BDF5A46A
3BC3E5DF
3C831FDB
3DD22B87
3D225E38
BDFE145A
3DB61397
3DB313A2
BD1488A0
BD29FE16
BD90B54F
3D3FF130
BDBC7036
BD399986
BCDB2078
3DB0148A
BD288554
3D1F1E78
BD5C21EE
BD8E0C94
3D5025D0
BCAD088C
3D0C66C3
BD3B7A47
3DAA6AA8
BD29C374
BD1199E0
BE0073F8
BC602A78
BDE7F0DA
3D1645A4
BD26ED88
BD1B5A32
3D64CFAD
3DA96124
BD7979C0
BC7EA358
BD8B2907
3DAC8B6E
3BAD1B3E
BE012CB2
BD5E0F72
BD07F224
BDB566E4
3C7336C0
BDD4CF61
BDE8CF46
3D094BD0
BDB43F1C
3DBC098B
BDE3E6FB
3D90381A
3CBA4826
3C91DC18
BD844BFE
3B6E02D6
3D9C3F99
BB30FCC2
3D8BFBCA
3D854ED5
3D84E6D6
3DA069E0
3D68F768
3A1F8311
3C45E330
3DB80987
BDCE0624
BD297251
BD0C3BB6
3D51340A
3DAC5886
3DA32E56
BD8EDC1F
3DCB1652
3DCD2BE6
BD0BE534
BD825BDC
BDB04981
BD46914C
3B75F389
3DA24302
3C9AB176
3DB04EB6
3DDA4156
3C193BE2
3DA7F4F4
3DB8E79D
BD165752
3DCA223C
3AB9E300
BD64D9FB
3A274A02
BB4476E0
BB9B02B4
3CF1C248
3D5D2717
3DD4E93D
3D739EF0
BD9F61C6
BDCEF7FE
BD197DEC
3D3B7978
3C953D78
3C722730
3D83662B
3D7C8D9E
BD817D19
BDD2B139
3D9031AE
BE009D43
BDD03BC2
BDDC21DA
BDB1D107
BD8E3134
3DBC3D46
3CB4037A
3DA1ACFD
BDB72396
BDCBE5EA
BDE47766
3CBE08E2
BD8941FF
3DD4DFD5
BD3DAC64
BD22D80C
BDBDDEB5
3D3347D9
BDE57D09
BD5A8286
BE017E9C
BD47F855
3DAE5C96
3DBA6F9E
3D768FA4
BD8C8716
BDE4E2E0
3DC0877E
BCB8C2B8
3D40102F
BCA1F887
BD2F9FBD
3D7FF67B
BDF5C45C
3C1D52CF
3C7FE917
BCD1A61C
BCC0D8FC
3D1DEAB0
BD38449E
3C0260E0
3D9A0B94
3DC5CDF0
3DE7976A
3D89B688
3B6E0DA0
BD7EA8DC
3DE1425D
3DBCE008
3D5962FC
BD771999
BD891A51
3DA712D3
BD4CDA7E
BD7FCF4B
3DBC6BA8
BC87DC40
BDD0D912
BDC940A5
BDD1671F
BCA66D59
BDAA1092
BDACD389
BD8B8A3B
BD5D5C79
3CDCF358
BCE3A9A4
BC8CE30C
BD4D5115
3DD62E07
3DD6F078
3C1385DD
BD8417D3
BD9329EA
3D0C3EA8
3E04E767
BC509A0E
3DE750F1
BDA7F274
BE019B62
3DFA7789
BDAB0610
3DDA06B0
3B7CC920
3DCC5B0F
BE06DFCE
BE19EA8E
3D83EDE5
BD38A95A
BDACFC3D
3D0051BC
3DD13916
3DC3CB91
3D7A486C
BDBE7212
BD89F176
3C5EC266
BCF4CF50
3AB095A9
3DC628EE
3DD35974
BD77FC18
BE2BBBA8
BD3D2789
BE1F7A01
3D3F93CA
BB3900ED
3D5B3468
BD7A885F
3E46BEF5
3DB844F2
BC1DA350
BB0885D4
BDAD2388
3CC34D20
BD916DF8
BC2D60E0
3D1F9D68
3D24A6DC
3D1460CC
BD662968
3CC776F0
3D4DFDE0
3D880F38
BB42AC07
BD92F4E2
BDF55049
3DAA0CE9
BC8BE986
BD6F3E6C
BB9CFDCE
3CEECBD9
3CE3605A
BDE15EA8
3DDB1D07
BCE4E7F8
3AF1DEB8
3D5E5753
3DCAB068
BDF3B6AE
BC11F407
3D88BC1D
BCAAB15D
BE01C5DB
BC6F120D
3CF045DE
BD66DD20
3D2E053C
BD13666A
3DAB0545
3DB5AFBC
3DC8AFB9
3D77EB6B
BE266E07
3DBB0124
BD92C906
BDB0A590
BDB80655
3D53E028
3D18DFFE
BC0AEB9C
BDF207CF
3CE6CF48
3DE377A4
BC9A98B8
3D002120
BCF490D0
3D0BB354
3CFC7C38
3CB34931
BDB90419
BDEDCA78
BDAF21E8
BD72D8A8
BD921669
3D2DC24F
3DA6BB2D
BD766555
3DAC62E8
BDCFDBD8
3BDCCE10
3D838950
BD174017
BDEA948C
BDE90A78
3CBE5FFB
BDBCACEE
BCE28ED4
BE02AAC9
BDE07493
3D8B549E
3D2D67D0
3D278AC3
3DAC9B5E
3E176821
3DBBAB0F
3D5E85CF
3D90C3CA
3D82CCCC
BD87D993
3CD875A0
BDB0CD08
3D93EA3A
3DEE7014
BC478B5A
3D8E29B3
BD7BD597
3DA9BD99
BDA96728
3E023B80
BD2FA0FB
3D1D66A0
BDA8DAFD
BCF0CAED
3D66A53B
3C254E91
3DCA2273
3DE771B3
3CDD3770
BBCE8C55
3D13EE40
BD69E1DC
BDD65E6A
BDDF9FB4
BDF68ED1
3D6EC804
BC8A8D0C
3C7422E0
3C0FD312
BD302916
BDC01C92
BC9BA7B4
3D8B8C0E
BD34C340
BDE4B23B
BD074F80
3D2A1C04
BDDA3748
3DAE5CA2
3D33B540
BCBDF5CD
BDCAC202
BD0811E9
BDFFB5C6
3DC28490
3D79BF3F
BC6EC5B0
BD6161C5
3DB99E0C
BD850134
BCE7F000
3BFE1F38
BCDA0FB9
3D90FAB2
BDB1BC20
BB176F2C
3D9365B8
BC8AEF08
BC9C29E6
BDEB5A88
BC89B308
BDC40C8B
3D1A0331
3D555F56
3CAA570E
3D473255
BCFB61B0
BD0FED61
BD9F1564
3CBE06EF
BD45D39E
3DADCBD4
BDE4F151
3DA9203B
3C819314
3DE281EC
BDBA613F
BCECD538
3C615C3C
BCF84B96
3D1A9EF0
3E0B5951
3CC58006
3C7E8BF0
BD38F1D2
3D62165B
3D0F33C9
BADFA194
BD44815D
BCCBD630
3DDC09DF
BDC7A32F
BD05AC20
3D96261E
3DB8955E
BDEB3674
3CC2A140
3DB7DF95
3DB4D443
BDD3379C
3D9BA51E
3D2B0744
BCE6230B
3C50D442
BBD7B6EF
BD60AAA2
BD8C65E2
BCEE3BFD
3DABE19E
3D02C8C8
BBCCF556
BD57A10A
3D0C64EC
3D6D2924
3DD12153
BDE1B8D9
3DAA6E0B
3D19E7F0
BD7339A2
BD15D030
3C0546AD
BDCA3F2E
BE01BAAC
BCE75570
3D344776
BD322247
3DD50140
BC89A034
BCA10318
BD99064E
3DD010DC
3DAF0FC4
BDBD9715
3D9B9BAB
BD7A5836
BDB2C963
BD88399E
BDAD5C66
BD4DB9AB
BD9420EC
3DAEBDEC
3DA234CF
3D5371BF
3DDE26EC
3D870D99
BD9727F7
BC4670C8
BE0071D8
BDA48B90
BD3FEC0A
3C254900
BDD1B740
3D36DBD1
3DEA8D44
3E12BFA8
BDC24153
BDB4619C
3C943FB3
BD45C353
BD314A8B
3C047FC8
BDA4BCE3
3D9F3D29
3DA9C9C2
BD352F2A
BDDB7774
BDAFB96C
BDBA1159
3C834B7F
BA80A240
BCFC4792
BDDFE066
BD628EA6
BB565997
BDE28582
3CECC73D
3D80290C
3D8EF060
3DA7DB28
BCDFD11B
3CD0025D
BDE2FDAE
BD97A0F5
3D54347A
BDB493C7
BD06624A
3DD0FFE5
BDA8FCA6
BDCF1387
BD905B1C
BDD47388
3D783244
3DBD9C1D
BDCD207D
BDB27677
BD52F594
3D2FE30B
BD36C413
BE004ED1
BD6447DB
3DB3F616
3E07F67F
BD47DB9E
3DCECC28
BD757734
3D190771
BD1EC1BA
BDF77151
3DBE509B
BD47EEA9
BDC379DF
BD7BA2DE
BD52F1CA
BD8B3984
BD8ECDBB
BC11D445
3D77642A
BCFD1828
BD681002
3D5DED9B
BD2C58DA
BDDF1A4E
3DBA3640
BD7737C6
BD67CE04
BADAAD45
BDB506E2
BDA3E460
3DCC7738
3DD4110C
BC688DF5
3C020EB1
BC3D42A5
BC82676C
3C9EB138
3C484103
BD26C07B
BDDE4E71
3DBD4FB1
3DBD22C2
BD867D14
BDF14351
BBBDAF6C
3D8FC265
3DCF21AA
3D02DB68
BD1A5A8B
3D7EEBD0
BD9B45FA
BCE2D69C
3DB8B20E
BC7C174E
BCA4516C
BD0F1947
3DBE8082
BDC7D746
3D0C2CC0
BDAABCD1
BD4BA0EC
3DBB26E0
3C8D9A8E
3DDEDD76
BD88E3D3
3DC83A6E
3D69CCAE
3CCE0074
BDF2DC41
BDD340CC
BDFC5D11
3DFAA789
BD74834F
3DB05E69
BD92AE79
3DD26E91
BDA7EA2B
BCA4E065
3DA74014
3C4A3D10
3DA73D80
BD836D06
3CD9C9B3
BCC0FEB4
3D8BE941
BDAD71CD
3DC979E7
BDF24560
3D87C8C8
3CA597E7
BD32085A
BDF22F09
3D963661
BD153330
3CEE08E0
BD4C9061
BDB732D8
BCBD5630
BDA03ADA
BCA881A0
BD8B9A78
BDD2CE1A
3CBDEE00
BDD72B0E
BA705780
3AF4CC7D
BDCE15E3
BD9997BD
3CE42BC0
BCC493DC
BD29D180
3D069506
BC9E8DC8
3D4ED69C
3DBE0C31
BDBEF710
BBF3ABCC
3DB1F687
BD8EEE01
3DB172AC
3D91064C
3CE3BC7F
3D8AA8DE
3DABF52C
3DB80145
3DD12A70
BD0DD71C
3D902CF1
3DD86D40
BD41563B
BC3DC4CD
3CC06B0D
3D43CB46
3C6343C0
3D137710
3D150AF7
BDDAC629
BD346806
BD732ACE
3E15D9ED
3D61AA5E
BDAF4056
BDDC1DC6
3D119866
BDE303AB
3DAA3694
3CEFBDA5
3D9C4774
3DE09832
3DC593AF
3DEC4B42
3D7B8B4C
3D5D19E8
3D9972FA
3D260648
BD23C86F
BC29D97E
3DB48B74
BC0D7588
3C7BA120
BD474D6C
BDDE6E55
BD94F80F
BD7A4A8D
BDB8B5BB
B9CED336
3CE0FE5F
BD761F59
3D959C4F
3CD1CA50
BD38DF6A
BD175B72
BD953169
BDA9226B
BB8C5189
3DDD74BC
BC06A991
BD652382
BDB7EDF3
3D3104A8
3CB59F6E
3DB08957
BD9A3264
3CE72921
BDC2B9D4
BD04B295
3DF08762
3C8C2268
B9A23D4C
BD85787D
3C914805
3CB58FA8
BD9095E3
3D3B6A97
BDCE83E3
BD44B621
BDC7C3F7
BDD85972
BD61766D
3C2CE272
3DA9F317
BD71052B
3DD3AF31
3D13279F
BC9DD338
3D067DD6
BD3B9F53
BDA51842
3DC9E78A
BD167546
BDB4EB5F
3C9CE7C8
3DD243E5
3D8F17C4
BD77ACE7
3D83E594
3D548EA7
3DF5EFA8
3DBD77AA
3DD3DEE5
BDB175E6
3D33E9E8
BD42FE02
3CE4342D
3D075DDC
BC206D80
3D2AF9CC
3D990920
3B5A6CB6
BC187464
3D93B592
BD3CE8D8
BD37D1D6
3CE8B8DD
3DB5D74B
BD6D4092
BDD7507C
BD0B4694
BD17D2A5
3CAC7F8E
3D350478
3D66CE37
BDE15521
3CBB8C69
3D1A242C
BDEDBE07
BDA3680E
BCE5F3D0
3DCD73D4
BC76FBC4
3DD72DD5
BA6E0263
3DD953E8
BCAE5DC7
3D3FB89C
BC939B80
BC80BBE6
3DD831F0
3D17F81B
3DEAD0F3
BBF1FDC6
BC2DDE08
3DB2422A
BC3E3868
3DD60650
3CDA32C6
BDAE8D96
BC5E6E6F
3C352CF2
3D293384
3DCCDFF4
3DA2E02E
BDC2B7DC
3D22C331
BD33EEBC
BC140628
BD7ACC8A
BDF71736
3AA509C0
3CDFC178
BD093116
BC7035C8
BD053FA6
3D7AB85D
BDE1608E
3DD57CBE
3D036090
3D2E9D6C
3DA1DFAD
3C796B18
3DD1B780
BD9B2458
3CC26B90
BDD86669
3D7AB775
BD3330D8
3C15569D
3D3A3A04
BDD1E662
3C3509D7
BDEF6003
3D2246EA
BDA23BA6
3DAE93A4
BBD9C292
3CD856E0
BDA0B34C
BD4FE21A
3DA96519
3DA8F6E4
BD6D12F8
BD812A77
3A86F440
3D968E15
3D0EA6B4
3DEF68E0
3D9E5107
BD867641
3D6A7503
BE1D1130
3C4F9595
BA913C03
BD9A231A
3D830674
3C1D3FDF
BDCB9DDC
BE134795
3D9882BC
3D8FBADC
3E165247
BDBE8E93
3DA4096F
BBC849A0
3D91840D
3CE3F00C
3D081BF0
BD86E87A
3BF5F54D
BD1DE865
3DB62E5E
3E31D9A2
BDB1E92D
BB21780F
3C0F990C
3DD2E102
3DA2EAAF
3C7E1E3E
BDF20698
3B836A57
BDE22D5F
3DA4A73E
BE452D33
3DE1099C
BDDA0DCD
BDA079C3
BC55BF80
3D8B2290
BCF165F9
BC7C9E30
BC98A8C0
BD116BE0
3D91C4EF
BD9D245B
BD0D16D8
3D8C4D48
BE3D574A
BDF8F0DA
3D260120
BCC8EE9C
3D982786
BB090232
3D7DE394
3DA7F01C
B9897067
BDC68BB4
BDC5B8A4
BD8F6477
BD932FF8
BD1CD50F
BD05F15F
BD7D5176
3D17DCAE
BCD7F448
BD5B1808
BC8A40C8
3D5F6085
BD87B1DC
3DEB427E
3D96C6BA
3CB07230
BDA279C6
3BC57EF9
3D9F5F02
3A9596ED
BD85E5DC
3C55C144
3B867C53
3DDD5E22
3DBE3416
BDCAF009
3D957E9E
BD7C4A90
BDDE4EEC
BD84840C
3CD5F7A6
BE0232BB
BDEC2E13
3D9A61BA
3D55F0E8
3D9804AE
3C8C21E8
3D423ABE
BD06467B
BD0991E2
BDA1D69C
3D5B2E88
BDAB0895
BDA3E021
3E0E073D
BCF96AF8
BD8CF24B
3C991410
BD0D3FAC
BBCCC8A0
BC4420F0
3DD408A4
3C06A0B0
3DA3A4FA
3D1293E5
3D6030A6
3D02273A
BD6BBE2A
3D1AEC8C
BC8F49DC
BD21E2F7
BAB1C2C0
3B9A6BCD
3DDCF3A6
3E02AB6E
3D8958A4
BDB35844
3DAB5ADB
3DA173E4
BDD521F3
BDB4C2F8
BD7E9D8A
BC60046F
BE0DFA8C
3A45C295
BD45157E
BE1CDAD1
3BDBD1C5
3D5BAB2B
BDCD1692
3D5D339C
3DEB366D
3D7EDDF1
BC07D1EA
3D2A3A56
3D0F73A5
BD4DCEDC
3D2B1DA5
BDC7D501
BCF928F8
3D0924F4
BDE5C632
3DC48C6B
3D7C099C
BD002CE5
3C352180
3D4960FB
3DAA29AC
3CCC7943
BD93E08E
3DB9224F
BE014FCF
BD9E3D73
3D91BF48
3DAADB06
3DF0BC57
3DA0D5F0
BC8806B4
3CDB3976
3DD2D8A8
BD26F41D
3DCF0A9E
3DBD2050
BDA3CCEE
BBFF84C0
BCE1676E
3DB85452
BDDAB629
3DA8E28A
3DD10B48
3C11E9F5
BBCDE0A6
3C01B770
3D1AD517
BB0DE316
3DE1AEBF
BB0D3DF0
BCC584D8
BC9B83E2
BCB40824
3D237322
3DA1B6F0
BD4A2B44
BDF0066E
3D250C25
3D166654
BD9A5C1C
3D5B2581
3D90674A
BD90DD42
BDFA4F41
3DF0283F
BCA52B9A
3DA0AFC6
BE03D59C
BC335123
BCAD879E
3CAF8900
BE011E96
BD131991
BD029262
BD1971C2
BD4B422A
3CBBC63D
3DA9168A
BDEF62BD
3A39A2C5
BD9B437E
3D1B461B
3B73F9B3
BD5CC88A
BDAFE912
BDE3CE0B
BD5A7266
3D140F14
BDC326A3
BD5390CA
BBB25AA0
BD293A00
BDCC3F91
BD45748A
BD990E80
3E04C8A0
BCA556BC
BDE55495
3E134F33
BCE03539
3CA8FAC0
3D4CDDB6
3DBE588C
BD75EA98
3D4E0047
BDF07B71
3D8DC1B8
3C84F247
BD456A02
3DB26D88
3D5E8538
3D975709
BDC5A6F1
BD8DC196
BDA1B1C4
BDAF6FBC
BC547528
BCACB270
BCB65455
BD76B1E5
BBAF4460
BCADEB33
3DD01C12
BD962B4B
BD566A89
3CBE78D2
3DDA8BB1
BBB40A6D
BDCBCD2A
3DDCF0D8
BDB219A6
BDFC7FD6
BCBEFA76
BBF47589
BD08EB5C
BD046335
BC73C931
BDE096CD
BDDB1A3D
BD90DB1A
3DA825FA
3C872B88
BCEF54B0
BC812A66
BD9E8F92
3D80F66B
BD0C898E
B97E7638
3DC06B8D
3DE1688B
BDD2A321
3DB8FC01
BD324535
3D70D7F0
3DDFFC4C
BCAEE120
BDA42C88
3D888A71
BBB1F540
BD9CC113
BD96B5B0
BD20E1C1
3CC6EB3D
3D98F5FC
BDAB460D
3DB84B56
3E0F2B78
BC66F713
3D5ED640
BDC307A6
3D8280D0
BD3C7BD5
BDD226D2
3DD62D8A
3DE30D81
3D80B05C
BC73D22D
3C28FA5A
3D8C722E
BD4CFDD4
3D899738
BC880DC1
3D9F43DF
3CD9C26B
3CA710C2
BDDCC79C
BBEE360F
3BB441C3
3DB0741D
3DB32A03
BD406922
3D9936C8
BDCBF5E7
3D55B714
3DDE145C
3DE2E492
BD6E03E8
BD8FF6F8
BCA86357
BDBF4B1C
3DE4DAAC
BD66A3C3
3C3E0830
3DDF99BA
BDA08282
3DCD46A0
BDDEBB52
3D0789FF
3D0D8314
BD52379B
BDD1ABE9
3DC52F54
3D4BF7A0
BDB8BFE8
BDA8379A
3D6F676C
3DAEC3A4
BB3CE970
3BE98440
BB4C41E0
3CAC3B98
3D97EC93
3D1526E0
BD3EBED4
BC4F2040
BDABCEC9
BBE966B6
BD57525C
BD1F5BEE
3C0557B1
BDE1F3EF
3C9885F0
3CA47B9F
3DB17734
3CEEF831
3DEEF951
3BDAA940
3D41F4CF
3D9B7324
3DDB9A5F
3D8AFB2E
3DDF9845
3DC00A13
399EA8A8
BC1B2152
BD53287E
3DD24083
BD819959
3D83CAA2
BD253B2C
3C48CDFC
BCE2CA3A
BDDC2D17
3D0A6AB6
3CA54362
3D8B5794
BDBAB3BE
BE04A931
B9E66000
3CDB5A39
3D1A47FB
BC862C01
3CB3CBD1
3D7D295E
3DBAC30A
3D029864
3C83329C
3C6749A4
3D861258
3D0B7624
BD461268
3BB3BC28
BD55D620
3DD0687C
BD666768
BCC12F39
3D574F3E
3DE76B2A
3C966943
BD49B893
BD9B8AC2
3C1EE948
3CA3D858
BD9A87C4
BDE9E597
BD15DF5A
BDCD1110
BDEF5DA7
3CF92EE8
BD1B19AA
3DB22A19
BDF5AB3B
BD94CA9A
3DBD0C74
3DBC2032
3D849F78
BD3470DE
3DBEAEE6
3DD28170
BDA51179
3BADA11D
BD2AB474
BD3A8B8B
3BB31DF6
BC959869
BDABCA0C
3CE40013
3D39D94C
BDAFF5D5
3D0D72AD
3C962961
BD6420FF
3D02ABBB
BDE2EE90
3DCB2954
3D795CD3
3DE4D5AF
3CA55307
3D399337
BB7E09A7
3CEBDF45
BDE74D09
3D9D07A0
3DC70EDC
BD9C5674
BD7E9F6E
3DD4C27D
3DDE285D
3C991036
3D007B2A
BDED7160
3DA86108
BD50ED22
3CD0F1C8
BB420411
BD6D3313
3DC8B580
BD8F7DE6
3DF193CB
BD1F83FC
BD7B88A0
BDE504C3
3D7797E8
3D63F9E0
BCC00265
BDA55408
BDD2AEC3
3D6E01C8
BD23EC32
BD990D25
BC1638C1
3DD0E936
3B9C0D00
BD7508EF
3DA49CA5
BDC4B124
BBAC8970
BDD30A17
BDBEC3A1
3D69817C
BDCC07D6
BDC4C7A0
3CF34F8A
BCBBF356
3D5B6358
BDD65073
3C0988F0
3DFD5A0F
3BF73880
BC117E17
BDFE69A2
BDCE7D1C
3DF145A2
3CEF42D0
BD3999EE
BD08E266
3D4E1568
BD8EDBDD
BD9D1286
BD37FDBB
3D289139
BDB064FD
BC2808D2
3DBB3CE5
3BB14886
BDD36452
BDC6EE7D
3DBEFD44
BD42B835
BDA7EB55
3D68108A
BCCA4B0E
BDDD0C04
BDA66FDE
BD9D5AB5
BD60F12C
3A008C80
BCA223EC
BDD8B2FD
BC89B89F
3DD06BF2
BD4409B0
3D362500
3CFB8555
3C416466
BD13C45B
BDD4EB6D
3CAC4A87
3C8C0F4A
BDC40EE2
3D85E794
3DB59EBC
3DF1A7C1
3DC99BCF
BD51E7A8
BC0B4EC7
3C1F4B40
BCBCF6DC
3DD14905
3CE37D70
3D0BA6DF
3D0B0090
BCB7213A
3CF3A909
3D3A177C
BDD99D4D
BD268A0F
3D01BA36
BDFA8894
BD1ACB9A
BD9F3F8B
3D6401C6
3DB3C536
BC964FE2
BD1C49F2
BD7DF61F
BDBD9F77
3DA82E72
BDDBE585
3D0540C1
3DB64E40
BDC4FA73
3C05027D
3DC45333
3D752D5D
3B54BE1B
BDD446EC
3DD1A5BF
3CD70ED9
3C88FC20
BD8ACDD4
3D963EFA
3D20F467
BD1E1842
BC493038
3D12C332
BDBD88CA
BD8C92D5
3D2E2874
3DC51594
3D5446DD
3DC2CF9B
BCBE1D80
3DB08699
BD919A66
BDC738CF
3DBE79CD
3D5C326C
3DEBCAF0
3D29342C
BDC6DFDA
BC8C5DB8
3C89B6E4
BD970083
BC851A74
BD2601B2
3D917FF6
3DBD0B02
BDFFD61D
3CAC0324
3D2721EC
3D1AE944
BD6516CC
BC993D2C
3D7D2FC8
3D9476B2
BD9276DD
3D54FA04
BD92EB3D
3CE90B85
3C98067E
3D846E25
BC1ABA78
3CEADC90
BDD804C0
BCBEC2EE
3D9956AE
3DDAF801
BD743DD0
BE04FF53
3CDDC6F1
BD0DB008
BD4DE2FF
BD1A89B4
3D6167B8
3D3C73F6
BD8948A8
3DDE1076
BD46A25A
3D5F1ECE
BE0325C2
3DFCB5C2
BD4140EF
BD26C9FE
BDE480C3
BD9A927A
BBD28F5E
BCA1A491
3D29098A
3DCABD6D
3D19F6C4
BDDD7CB2
3DC91231
3E07F18F
3D373EA8
BD82785A
3DE5227C
3DD5E34D
BD6A9064
3CCF9D24
3D75305C
3D8CFB6B
BE0232A3
BD761F0F
BE081063
3CF52C56
3D9F18B0
39728B28
BD4BD4CE
3D928658
3DDE909B
3DC54650
3DC84856
3D88A5B0
3D748EAC
BDB20148
3DB51102
3DE4BD46
3CAF310F
3DE586B2
3D506CBD
BBBFEC54
3D5694C8
BD87B200
BDBAE0B4
BD012CF4
BCB7151F
BDE6E50F
3D28CC19
3C8035C7
3D9CA075
3D66D731
3BF02E5D
BC8FA37C
3CDDDA48
3D6A04C5
BE023B5A
BD8A8E83
3CB2EA52
3C334DA4
3D9ADBFF
3DB2222C
BDEF722F
BD5EBCB3
BE09521E
BCA5AF07
BDF2BF87
3D32E5D5
B9EDFC00
3DFA12BB
3C90B7C1
3DC7E156
BC5C2BCD
BCF2A792
BD8FAE43
3DE36E06
3D138BD0
BDE7A545
3DA7F117
BCA13948
3CC86F7B
3CBA1A78
3CD12348
BCEE248B
3DE44177
BD67BB0A
3DCD4124
3DE64A5C
BDA5F502
BDB53D9E
BDB2AAAD
BCDBCA93
3DAD0B1E
3D8394C2
3D7E167C
3D1389F8
BE00E49D
3DC50859
BC83E3B4
BD8F155C
3D5D4351
3DB8F0D3
3AE07B80
BD840F40
BDD6DBA6
BBEB3C80
BBD9CCA6
3D79B100
3DD14773
BB66AA9A
3CFE3058
3D117955
3CB424D8
3D9AECE5
3D33A80C
3D7B77A0
3DD02A87
3C4486D2
BD7228E2
3DF599C6
3DBDFA74
BDA8BB42
BB813F30
BCB15508
3DA0B296
3D96F345
BDBFE420
37C60BA8
3DB6C622
3D97F2F3
BD643643
3C95AC2D
BCF9568C
3DE52D74
3DDA24E6
3DFE5BA9
3D2564F5
3CBDA04F
BC0E4655
3DBFB53C
BDD6DB25
3DC94649
3D09D82C
BDA6F3C6
3D84BF44
BCE126E8
BD8E8CD0
3DC7DD32
BDCE6209
3DC4ECCB
3C12AF5D
3D624F68
3D67FA9D
BC6B58BF
BD43FEC0
BDE73A70
BD6E37AB
3C85AF30
3C0B5BE8
BCF374A3
3D83DCDC
3DB40A8E
3D05F698
3CB510D7
BD0F7CAA
3DCDA144
BDC2E079
BD3750DA
3DCA2C80
3CD84E59
BDCC2E61
3DC6631A
BE03DB91
BC7165D4
3C4FAFD9
BDA486C2
3DE91BA0
3C459453
3DB84F73
3BB98E67
BD735BFC
BD0B66D7
BBA9F4E0
BDD3845B
BDAA30B6
3D3AFA88
BDE5418B
3DE11480
BCB5AEEE
3DA859A8
399E89D0
3CC95FF3
3DBE8389
3DCEC352
BD879F81
BC44DFBE
BD8123DA
3DA52966
BDB22BA7
BD70A1D5
BDF0E388
BB91872F
3DE56678
BDE68E2C
BD730E94
BCE2DB3C
BDD46891
3D1A7204
BB7D634B
BDFEAC94
BA8DFDC0
3BCDE394
BD21745D
BD524CB0
3DF4959C
BD62E8E6
3DD0595C
3CA38C60
BC93058D
3D9999D8
BCD92BEC
BC905B90
3D2A458C
3D8A84E0
BCA17E14
BDC483C2
3D9D1B9A
3B1E2840
3DEBA230
BD6E9150
3D11D558
3C19AD90
BDE3C25A
3D629D6C
BDEA7120
BDDB38AA
BDA96F40
BD8252B6
3DC9BF84
BDDBDCAE
3DF3212A
3DD9BD86
BDC9F042
3BDEE19D
BC95404E
3AA011C5
3B6A1AC8
3DDC2AA0
BD575C93
BCF18808
3DEBDF76
BDAC7311
BD9E96BC
BBB7D4A0
BD4BD130
BCFD600B
3D176AB3
BD136991
BCFCAE99
BD20C5F8
BDC1ECC3
BD487A54
BD4B726D
3B8A801A
3DC643EC
BCAFFCEE
BBD895D3
BD5DBB5E
3BB56D4B
3E06D988
3C070B60
BDA1C25C
3DB9894B
3D8FA7C1
BDA82678
3DC5B2B9
3DA81AC4
3CD5CE2A
BDC062B6
3DD0825B
BCB1CFB3
3DD90153
3DDD91D9
3C8DA83C
3D86CB24
3CD26F68
3DD21826
BC89BF38
BD1EC8B2
3C148176
BDB31A66
3CC98ADA
BD9E6CC4
BC175700
BC27D2F1
BD70A65E
3D80EA82
BCB8418E
BDF47D85
3D196EB8
BC3F48D8
3C254177
BD25E655
BD75DF11
BD1AC48F
3C9FED89
BCD57E8A
BCDD002A
BDF67C87
3DC0880B
BD1C079C
BD4EE327
3C6B9E67
3D62C582
3D703232
BC1F6435
BDD56058
3B21FAA6
3D8F83FE
BD121908
3D3E937E
BD809B5E
BDBA3B1E
BCCC6CE3
BDE5C3E9
BD03E563
BA067A31
3DCB53B7
BDD32794
BD2F60B6
387ECACE
3D9303BC
3CDF7C28
3C440590
BD6BD81E
BDA7210D
3CFB94F3
BDA46079
BBADC5C0
3C193110
3D4CE376
BDC50DAB
3DBF1A0E
3C485610
BDBBED42
3DB771CA
BDDBFB8F
BDD62E02
BCD24DE4
3DAA5326
B9905700
BD01F4B1
3D042CC8
BDE8B623
3C7A3EC0
BDCB8656
BAF56A60
BCF36D34
3D7F6E34
3DA2E4DA
BDE4B764
BD2128DC
3DBFD410
BD5F31A9
3DAFFED0
3C24E675
BBE5B770
3D07F4CE
BD138432
3BE7DC60
3D9BA740
3D1A69B4
3DDA3731
3DD37A22
BCFB0CDA
BD8C7559
3DF6332D
3D56F63C
3DCC8A60
3D39842A
BD84C02F
3DB78C36
3D1FD18A
3D26A75E
BB8A7820
BD7294C0
BD4B918C
BD51889C
BDB15CE4
BCC206E8
3D12C15E
BA340A46
BDE8C8F3
3DE3A101
3D7E20AD
BDD13956
BC25DC61
BD64D009
3DF0A7B0
3DBB81C6
3D9C1AAC
BDCA8ED1
BDACF423
3DE663E1
3C037820
3DD00523
BD3DF783
BDD8BDA5
BD062275
BD194BDB
3D999A0C
BD2C08E4
3D8EF2E4
3D73A1C8
3DCD476E
BDFE73A0
BD594B4A
BD5167EA
3D83E372
BD8B4EE5
BDF5A0A8
3D5C8A98
BD09651E
BCFE8080
BCBAB28B
BD5FFF63
BDD3C3A4
3DB81342
3DDF0BD3
3BC17D97
3D638515
BCE9AD04
3DF60CCB
3CD0E850
BE02401F
BC56B027
BE015141
3D99C5AA
BD51A58C
3C114DB4
BD389A24
3D528CC5
3D7C6996
3DDFE443
BD1F4D8D
3DC2C8B8
3C9FE8BD
3D3EA0BA
BD77D0FC
3DB99ED4
3CFC92BB
BD84438D
3DAF4806
3D1A49B2
3D9B4D91
BDA575E0
BD34BDEE
BDEA81C7
BD72E50D
BDD0A649
BDB627C7
3DF37B7A
BD226498
BE05E0C4
3DDED7D2
3D89FE94
3DAD9A88
BDCBD007
3C28C546
3D92FAEC
3D9CA960
BDD50492
3D2F2F38
BD47D80C
3CE320BE
3DD177E3
3CBA2A58
3D6413D8
3D9A949A
3BE5F690
BCA888D2
BAE00E8A
3DACC832
3CAEF1F0
BD2C04F4
3D37872D
3DD77CA6
BDFAD054
3D3D93DC
BD2FC65E
3D789AA7
BCCF98B3
3E011794
3D892C5E
BD1C844C
3CB1E7B5
BDA8346F
3D513E9B
BD7FD26D
BD9FF7D2
3C805BA5
3BC84B62
3E002D86
BD6287CE
3DF5BD65
BD344236
BD12CD60
BD233DEA
BD2E3EB8
BC0E6792
3D6B4443
3DBAE135
3DA3FB81
BD9202FE
3D497E1F
3DD80127
BD4330EE
3DA4DAC5
3DA9F524
3E0B3B7B
BD8F3264
BDDA25C8
BDD4A647
3D263FD8
3D8EA742
BD1FB775
BDC6CD40
BC3AE838
3DA344B6
BD4996AD
3DA1C396
BD1FB8B8
BD25A528
3D7CF7A7
BD9CFC1A
3DDF4251
3D0B2E44
3CC4ECF5
3DD29203
BD8530BA
3DBA1196
BD2AC3DC
BD92CC05
3D61C6AF
3D912128
BD3384F7
BCA90240
BB3CE9DB
BDB945AC
3DCB0FE4
3D9AA02C
3D1292F4
BDB4632C
3C70E3CF
BB202CA0
3DCCDB9E
BD2E95D0
BD71D7BB
BB43BBA9
3B61F580
3DBC5473
BCC50746
3D7001CB
3D15F840
BD55CDED
3D08DB04
BCA4A0E8
3D3C2F08
3D677740
BDA509DE
BD53075D
BDEE63A4
BDD1E983
3DA12F5F
BC32DB62
BCFD3D85
3D6DA0BB
3CEB60EA
BDC066D9
3D82F1A5
BDCE6CEF
3D77DA78
BC80AC42
3D94974B
BCB8CEDF
BDD72BAB
BC324FF4
BC2FCBF9
3DC141CE
BD0F77CC
3D4389A0
3CD59390
BD84CD38
3D7228A1
3BE70E00
3D7B0ED0
3D27C0B6
3D4D7B08
BD2D0798
3C447310
BDF3F808
3B84C330
3E009A83
3D8B5CA9
3D02EF30
BDE21470
BDAA1326
BCD16C23
3CC26619
BD86E815
3D50AA40
BD459A70
BDA8B131
BD7CF73D
3BC2F920
BD7D4336
3D0791E4
3D29FDC4
BD66AE7C
BC224377
3D81FCC6
3E19D75F
BDD0BB07
3BABB9F8
3DBD8EB2
3A4A88D5
3DB63C64
3D6A486F
3D7C69C8
BD2453CF
BB88001E
3B25F0E0
BD9F9E0D
BD4FFDFE
3CED90F8
3D954713
3E1DEA74
3DCDAB27
3DBDC830
3D801FD3
BDEB9885
3E29A7DC
BE124C4E
BCB59864
3DC4D924
3E00274B
BD5E50FD
3C85AE63
3D5E0777
BDE2E41B
3D8EB709
BD970F30
BD04DAB4
BD883EF1
3DB959AA
BD00C4BC
3D8C2567
BDEEA3F3
BD9A72F6
BE041357
3DE3F1FC
3DDA95F3
BE078BB2
BD901C4F
3C5D7DBF
BD8E116C
BDED9C4B
3D922A8A
3D2B871C
3BDF9680
3D45A9A0
3DC4BC77
3BB76720
BC1AB81E
BD2B8DB6
3D8FA270
3D180D59
BD69F0E6
3D48872B
BDED1847
BE019DB3
BDE3913C
BCB54054
BC9CF6B8
BD5EA6B3
3D4A95C6
3DE031B5
3DAB011C
3C615967
BD7D6DF5
3D852B27
3D191533
3D15C5FA
3DD02EC6
3DF51F2E
BDD5C0E7
3D409776
BD3F6A37
3DD02540
BD9F8AB2
3C5B6EF4
3DA851A7
BDB9DE25
3D6796CC
BD3E1DA1
BDEF684C
3D9E74BE
3D90F069
3CAD16A8
3E1E6169
3D885DDD
3BF33E9F
3DB61101
3AD97B61
3DAC48DE
3C3054CE
3DEA7F08
3C9D2B50
BDB959C6
BE08CAB2
BC2C578D
3D5A0806
BDD41CBD
BD5BE33A
3E237B0F
BCF888D4
BD81D575
BDB45C1C
3CE16F00
3D42B52C
3D15F23A
BE01ECF1
BC516358
BB91A920
BDCD30F2
BC59EAE3
BDF4C640
BE27FD06
BD616676
3C8094B8
3D8E6366
3DA16FDC
BDCBDAA0
BC4B0266
BD830A00
BD16125C
BADA8CB3
BC61752F
3D8D96CA
3D0E061C
BDC9DB4E
BCED414D
BDDC6E82
3D0BF489
3DAF9AB6
BD852ED4
BC4DBCBA
BD6D4B15
BC6995E4
BBE4F880
3D534700
BD1B7EBA
BD88B92C
3DC4A581
3DAA5AA2
3DE1348F
3DE8ED1E
3D17BF4A
BE5C4886
3E4742B4
BD310BBE
BDC4C15C
3DA3B0EA
3B9CA814
BE2C88AD
BCA2F6A8
BD1E6135
3D38C750
3BC869D2
3D76E60C
BDDFB36E
3E133AAA
BA773200
BD260F4C
BD8B47D0
3D31FC51
3DA31E94
BD808C65
BCDCA7A0
BD7CC4A7
BDBCF067
BC98CA66
BE22506A
BE335B9B
BDECD161
BB8BB434
BB875930
3D0A915C
BBFAE02B
3CAAD004
BDF0E7A7
3DB415ED
BD4DF296
BCC7127E
BD9B6CEC
BD92C990
BD24A550
BDB1D0C8
BDEB77ED
3D3410D0
3D3B415C
3D88EAE4
BCCF00C5
BCE91C13
3DAAB4C1
3DBAA792
BBAD48C6
3D4CB49E
BCEAA166
3D845828
3D399E35
3E3FA601
BA691580
BD80A38A
3DE0EFB4
3C6A9777
3C5A52B0
BDAEEF7E
3DB786DC
BD953186
3C92B5C6
BDADE37B
BDE005FB
BDD85143
3D30D6B5
BCDCB424
BDE8EDC4
3D92C34A
BC9E667E
3BC0FA3E
3E01C089
BDD7F307
3D60A851
3DE38272
BDDD9D87
BC165A50
3C885718
BD4A19E2
3DDAAFD4
BD3CDA61
BD5CE7EA
BB8C38F7
BC014DC3
BDDF9592
BD9CEF88
BCACB0E0
BB612CC0
3D17DE1C
3E28A12F
BDEE8C99
3D8765B8
BDB4C488
BD53EE2C
3D17B8C1
BD448DA7
BD713FF8
BD69815C
BD11EA8C
BDAA9BFD
3E425BF8
3D945F6E
BCAFF68F
3DC474A6
3DA10312
3DBC95AC
BD0B45B7
3E19EC75
3E5E2986
BCA9B71C
BD0F1E75
3D9F6E78
3E5004BC
3DE0D36C
3D8CBEF7
BD157880
3DBABA5D
3DFA0B6A
3C82DC90
BD05AFD4
3DD4A828
BD422C52
BDBAE8F5
3E00934C
BC54BFF9
3DF0767A
3C6E7E2B
3D6169F3
3BFC7D4F
BDA24564
BC3ADC76
3CD1E248
BD84FE30
BD37F662
3DDC0196
3DDD83DD
3C9C0F52
3C923B5D
BD849C6D
3DA3015C
3D10078D
3D93D852
3DD56048
3D961C93
3D82ED58
BDBF59A5
3D88D10B
BDB973DB
3D572E11
3D479D90
BD3E772C
3DD06041
3D896452
BDADF31B
3C69820F
3D746E74
3CE27818
BD69A031
3DCB2163
3CE177C0
BD96875B
BDEA0F3E
BD87D36C
BCD01FC8
BDB4EFA6
3CD3B3CC
3D3BFCDC
3C5C1D4C
3DB35AD2
3D866018
3D482D80
3D6EB70E
B9A92E9B
BD6BC2B4
BD963158
3D1ECB0E
3C1B2725
BCC52E3D
3DD2AD3F
3CEC8A68
3D38F7F7
BD9F6A5C
BD566889
3DC8C1FF
BD82ACDE
BD6240C0
3DE44BBD
BD7D5C3F
BCB8A775
BBF366C1
3C30733C
3D968F87
BC6A2B60
BCE2CA6F
BD8FC1F6
BDB67522
3DE66B3D
BDF79DA6
3DD668F4
3D0195E9
3D5CE815
3E01C0F0
BDB1D22C
3DC5FB7A
3D942352
BCC81E29
BCC2B3D7
3E0490BC
3D2DAB96
3DEC9216
3DDE27B2
BDDB8619
BD1C610C
3C7545C0
BD1A3AA6
BDBCE7A9
3D8AB370
BBE743DA
BD9DC263
BD82F8B0
BC046340
BD2DE10E
BDFA0657
BD38660C
BCDC693A
3DC4D386
3DC62402
3CA95843
3DD580BD
BDD5E80C
3D0DED5B
3DC38D82
3CD50DA8
BD2D6CA2
BCA04CE9
BC0D506C
3E2EE1D1
3D932C8A
BCA35D88
BD755143
3DC7B8A5
BC2DA088
3DD0188A
3C72ADEC
3CBA1C5A
BD3A79C1
BDC8A7BC
3CB50A6B
3C4FB600
BD953616
BD9536D2
3DBDB439
BD750522
3D97F732
BC91EEFC
BD4CE362
3D368CE6
BD789CAC
3D3EB6D9
3DB8B980
3BFF60A1
BD9925FD
3E1301D1
BDB0963D
BA66978D
BD95D268
BDB0B0FC
3AF5C8C2
3CA6EFD3
BB6F77C0
BD9DC39A
BD282423
3A994C26
3DE857C4
BBA25969
3DEB063C
3CD4A49B
3CA4E723
3C91157D
3CF7935F
3DA50960
3BA40D0A
3E04FED6
3DE48A9C
BCBEE358
BD87288B
BDC87E6B
BDC65103
3CE1C378
BCFB21CC
3D191B09
BCFB3A45
3DE65096
BD86D802
3DB6997A
BDC19AFC
BD010C0D
3D197748
3C2DA230
3D9A137D
3DC67EC8
BDC19FD7
BC08F350
3DEE1A2F
3DA543B6
3D8225E8
3CAF807E
BD3C44CC
BD297879
BD0877F6
3D89F801
3D86F4D2
3BE955E8
BD9BE38A
3D107866
BD078350
BD572C63
BD43DABC
BD69B835
BBD14E67
BC3928CD
3CB553BF
BDD51CA5
BD82A31B
BCF2D26B
BDA95E24
3D929D2C
BD83E3BB
BDFF4416
BD4E25C8
3DC3BB93
BDE0D146
BDABD4D2
BD150759
BD2F45A0
BD03CA25
3DAD77D8
BDD580C4
BD8B96D3
BD008272
3DC41516
3D080954
BDAC5A19
3D582D84
3DA2F91E
3CF7139C
BCD97D2F
3CF06110
BBA351D0
3D7FA350
3D8EB3C1
3CFF13BF
3D876491
BDB31BFE
BDB7EB11
BC0320EF
BCDCA2F1
3DD6D8BC
3DF6B1E6
BDEA4896
3DD4B132
BC1F388E
3D69D7DE
3C139CB4
3D95F40B
3D3C593C
3C79B6E2
BBA48570
BC8180FE
3D173AE0
BDC65195
3C7CD5CC
BD82E460
3DBB0454
3DB3751E
BDDA0A08
3C22A700
BD8E5E14
BD0C4DE6
BCF3BC93
BB232F56
3DA343C4
BDC4C787
BCE2EAE3
3DB60938
BDD3EE12
BD012801
3DF01D30
3D9487F6
BE0A7DC0
3D1AF2CF
BDE7599E
3D01D914
BDC6A6ED
BDBF79D1
3CFECF03
BDECEE00
BDF2A615
BDB3F2CC
3C0CAD22
BD86B98E
BD83CC2A
3E0F15AC
3D269904
BC9A1991
BD40DF50
3D4FA592
BD30DAA6
3C892828
3D32D570
BCB284E4
BCF3AEBC
BD03F9D4
BE56B378
BD169CAC
3DAC4580
BD556D41
BDAE245E
3DD9F1EB
BD41E44B
BBCE4490
BDAB04D2
BCC51BA4
3DDE1BA6
3DA536EC
BD44C554
BC4E13D0
BD15C568
3D49CCFC
3D22C32B
BD429D3E
3D93C771
3C736C21
BE0546A5
3D52C630
3DE047A0
3C9ECF20
BDC8FD93
3DAC6167
3E0B5996
3D9CC18D
3DA3522B
BD5645BF
BDFB86EF
3D15C078
BCEF7DDA
3DA7BC3D
3D6D5BD9
3B901E0C
BB4C8677
BDD0AFFA
BD6B0698
3D85D5FF
3DBF452D
BD4A8F35
3CAE5809
3D1D0DA1
BCD9E72A
3C64AFC7
BDD78D54
3C09FDD0
BAB3A6FB
3CBF651C
3DA9B2D9
3DC2C375
BDE73B83
3CAEB36B
BDAC811E
3BE7BC60
3DC34764
3D2F2F60
3D77513C
BD97B69A
3E0C943F
