3C4D4329
BDFF4176
BD97217D
BDB1E158
3D9D9D32
3C818615
3DE86D82
BD5C7196
BDC521D0
BE26E2E0
3BEFE980
3C975951
BDEB9940
3D5CF901
BC4FF2EB
3D1A17D0
3DAB8FD4
3E1A76C7
BDE3DF3F
BDEB5F5D
BCC70E34
BD265DAB
BD107090
3DC5D62D
3E1B6C69
BE0E89A0
BC2F3EC3
BDC99F86
BDC7DEAD
3DB81252
BDB11CC1
3E035730
3E32BC3C
3DA2B1A2
BB5E5040
BD8CEF8B
3CD23128
3D78B2E0
3D6880F0
3C961E0F
3DBB17C5
3D784F05
BD8E0EBF
3DB3C714
3E02EFC0
BD9529F5
3C868A78
BE075EA3
BE155039
3D625C23
BDA9852F
BD471B8A
BD6AA147
BCAEA688
BE0546F9
BE043D38
BE173CB1
BDF80523
BD895E12
BD09E620
3D11E0C6
3D4F3C1B
3DF4FF16
3D0E9798
3E14EB8B
3B9F8B56
3D240DB2
BDEA183C
BE12CDC0
3E6510C4
BD051DB1
3E0CDC7B
3E1D8945
3D82921D
3C53C3F0
3DC82875
BE708F20
BE9D32F9
3C5F2E82
3C69C980
3DDA984E
3DBE732C
BCAA25C8
BA6A3826
3DF89319
BDBC9DE4
BC04E5F0
3DB0F524
3D27FCE6
BE108008
BE2E73A2
BD940D4C
BE0B4ECF
3D0F3224
BE85F7CA
3EA2C8DB
BC495F6D
BD854C3E
BE1F31F7
BD9B6042
BC8F9DDC
BE0E5DFF
3E623E98
BD810B62
BE342A6C
BE2E276D
BE14DA8E
3E55A3EB
3E212E00
BC5A9382
3D47A1D8
BD22428C
3DA5F7E2
BE9126CC
3D688C02
3E447BCE
BD5C1EFE
BD79F048
BE01116D
BE311890
BE1E82A1
BE6312B4
BD07AAB2
3D1D68D4
BE53957D
BD9985E2
BE464FCB
BE065A04
BC6A5B9C
3E3C6745
BE5F25A8
3D8C6C88
BDBF6B81
BE7FCA54
3E8DE0B1
BE5EA9C8
BDF2EBCA
BCADF1F1
3DDABE92
3E18E37C
3E1FABDF
3D546CC2
BE0A1CC4
BD8FD772
3E076F9D
3DAFD2AC
BD5C387A
3DED13E7
3C52D279
3E1DAD8D
BE000138
3DD7C869
3E2DB810
3D886F5F
BE0A5ECB
3CB1AA70
3E30BFEF
3D8DF210
3E634107
BC41244D
BC9DDDF0
3CF9ED38
3E197255
3DBD5895
3DEC4A62
BDBCFE47
BCEF9899
BCC01998
BDBBFBFD
BDC2442A
3C666C66
3D58178A
BD1A5453
BE424DF8
BF0CB108
3E5E2EEE
BE074D17
3E53A381
BDCA57CB
BDCFF419
3D0E3755
BD172098
3DAE3EDC
BE13F536
BE313640
3E410E48
BE23DB9D
3DD62D6A
3E089581
BDDF87DA
3E08622D
3D8CB368
BDBCBF75
BE29FEBE
BDC7D859
BE1FA22A
3DB95C92
BE1CD194
3DBA8AEA
3CBB2BC0
BDAF37F0
3DB33A5E
3E0B6787
BD8D457C
3DF6E79E
3DEFCACA
BD0CAE88
BDB93728
3D5FF9D4
BCB9F9C0
3CEDE730
3DBABA56
3E08E57B
3DDCACBA
BE10E48C
3D40ECAC
BC9FAFE0
BE1D31FA
3D9BF472
3E3136A3
3DDB978A
3CC1ADF8
BD054810
3DDCC74E
3E201E19
3CEDBB70
BE170DEC
BDC3AA46
BD8BD794
3CF44AE8
3DE46342
3BB7CC40
3E04D165
3E168BF5
3D73F2D4
BD996B13
3C818480
3E230B85
3CF31D50
3DC16386
BDE9CBED
BDBEA9B9
3E0AC1B3
BDBE6DD2
BC062910
3DEE8C3E
BE34F07D
BE2A2953
BD09E670
BDAAE74E
3D0F6804
3E225D95
3DF67D86
BD919131
3E0D8481
BE1E8352
BD863104
BDDD0CD2
3E31C9D1
BDB28057
BDD10211
3E45792D
BDCB6C0B
3E03FAB7
3E1329A1
3E0D033E
BDB79870
BC6FBE35
3D8E256C
3DFD3129
BE1E8CAB
BDAFC72C
BBC4A306
3CE8E74E
BE1500E6
BDA0F6DC
BD6C6251
3DD633CE
BE0A81F0
BE333253
BE1DD143
3D77EA9E
BDCBB6EE
BE0A32DF
BD24D7F2
3E0401E1
3E194C25
BCDBFF0F
3DB43830
BD2DD880
BE212085
3BB46ECC
3E01A12C
3CCB0E40
3E3CDE55
BC5C2984
BC0B598D
BE162E6E
3D8DFC1B
3DB6457F
3E16B972
3E40936C
3E55E526
BD18B081
3CC56B6D
BDC81437
3D89E161
BE0EE545
BC1944E3
BE1206D4
3D1CAF22
BDBB4107
BD93000A
BE2D1F5C
3D2C1B55
BD9482D0
3D445556
BE387F1C
3D4FD4C5
3E09B4A4
BE2F2AA8
BE1B0BED
3D54C190
3C22C100
BDE46C95
3DC7FE72
3D6AC1A0
BD3E6588
BDF36525
BE00FDFA
3D3B0DFC
3CA929E0
BD4A9ADC
3E110A0F
BD97F08D
3BFEB960
3E26A333
3E3177D5
3DF811D6
3DC2BA86
3E304245
3D80BF3E
3E2B9795
3D15F94C
3E1ABB6D
3CE62BC0
3E09EF83
3D80083C
3DAD434A
BD2A9B54
3E131D77
3E14DB4D
BD57E27E
3D05BA44
3E109E35
3E1091ED
BD983217
3BB88480
3DB3CF5A
BE202B8E
3D8185CE
3C21BFD0
BC732F20
BD70EBE2
BDB18A4E
BD0B973C
3E06845B
3DCFE9AE
3C0F8870
3D055CA8
BD6A142A
BE194229
BDB13ECC
3BCEC120
BDB2AE3B
BE33CA11
3D203994
BD689264
BE2FCDC7
BC8517D8
3D7EF3DC
3C4C4370
BD9DBBD7
BE00FCFB
39805200
3DFD3416
BDE6677D
BB535B00
3DAADB5E
BDF27EA0
3E097ADB
3E316013
BBF00080
BAE89400
BDF463F8
3DA38E4E
BDD95BC7
3C2158F0
BE1EF48F
BD935CBE
BE24C3A6
3DAC00DE
BE130AB5
3D9768C2
3E15E8A3
BD6E7B82
3D12B8FC
BCBEF7B0
BCA3CD78
BD98117F
BE26662E
3DD06A2A
3DAD54E6
3CBD84E8
BDFA1F26
BDEF4D1A
3DFCB3CA
BD302870
BE23362D
BDDC4232
BDF6B3F8
BDA927C0
3C8D63D0
BE2CD4E8
BDC682A9
BD1EF730
BDD6AB52
3DCA6FD6
BE00C297
BE26534C
BCD31D98
BDB95AF9
BE248C2A
BD231F6C
BD59E824
BD8276DD
3DCF3DB2
BD5E09B4
3DE31AEE
BD4C14CC
3DA495D6
BCDD8240
3DC44DFE
3E224AE1
3D78D6F0
BBE8A460
BE13D398
BDAEDE2E
3E1C6765
BDC28E59
BD81F018
BE37561A
3E21918B
3B4BE72D
3E1A56C5
BCFA1389
BD96C5A5
3D868425
3E13C23D
3D149CCF
BC2BD3B5
3E1867B3
BC7E9A46
3D3D8D90
BDFC9EF8
BA5D3400
3DB95082
BE0AEF54
3E08E636
3B9A069A
3DD4D9FA
BC68F1C1
3DDCCC97
3D126DC4
BDB75C12
BDF341FC
BC8D7037
3E0CDE6F
3DAF3F77
BDBFDD62
3C930054
BDD8B8DB
BDFE4916
BE07C12C
3CA10C60
BE0E11E8
3D5A8F30
BC133801
BD8CBBAA
3E29A02C
BD6BEE48
3D76B831
3E1073BF
BDAAD279
BDF636BA
3DD2AFF8
3D4A8EEC
BDD9DAA5
BD73A76D
BE04B6D1
BDF7077D
3DB925FE
BCA1AC18
BE20087D
3E23C777
BE19F64D
3D90862C
3CE1C334
3E29EFAD
BDD6B80F
BE05CF79
3DFCC5BA
BAA29E66
BD062567
BDE09E1B
3CE49551
BE257CDA
3DFBD7D9
3DB1D4F4
BDD225D2
BD1F5304
3DA302D8
3D227C00
BC7FFDF4
3DF84C5D
3E31166B
3DA5D2C4
3D6BABE4
3C7833AF
BDE50337
3DA5723E
BD96E317
BE23914A
3E2BBC95
BE1FE921
BCC8C8A9
BDF89510
3D3E05C8
3E26E8B5
3CF17D08
BDCF5197
BDF3123C
3E6E5037
3D50B4DD
3E3C1682
3D48937C
BE305763
BE032E9C
3E305CCE
3D8B422E
BCFE175F
BD6E2155
BD873FD1
BE6538E4
3D3DA124
3DFCA7F9
BE0A73A7
BE1C794B
BE6CB5D4
3D936F24
3D635CD8
3D387E36
BE0ADD55
3A95FB71
3E3BA17C
BD882921
BDED73A2
BD83BE93
BD40E9DF
3E6DB308
3DF68C03
3DE11375
BE1461F0
BDB046D7
BE26708F
BDB1E115
BB1D16DA
3DE535BA
BD857403
3E1595CD
BD6A1A54
3D80B1A5
BE0CF92C
3D747060
3CE24ED8
3DCF05DD
3D47E0E4
BE0E50A5
BE187922
BD84F518
BD021A44
3C272B30
3D4CDCB2
3DBE1D0E
3E060FC3
3C43C100
3E08D143
BD72A208
BC7CBFD0
BDA87501
BBB8F843
3DEF08EA
3D389083
BDAE4917
BC6A88FF
BE1B9B7D
3D91E09D
3D9D289A
BC37B562
BD266DB4
3DAA54B2
3B117E39
BE10B8D1
3D8EEF52
3DD621F6
BDD0DD7E
BE20A552
BE14A76B
3DA8077C
3DBE256D
3D6288BE
BCFA722D
BE0B7802
BD835589
3E17A401
3D660DA6
BCBE76E3
3E359FF3
3DDFACCF
3D863D9C
3DAED502
BDE7AB48
3E32B771
3E385A40
BDFCA71D
BBB16EC0
BE302852
3D18AE82
3DD3D8F3
3DD09D42
BC2D11D7
3E4C6631
3CA5FDA4
BDDF05B7
BD0A39FC
3A2D5A26
3E2ECEC8
BE86FA77
BE31CD37
BE68FF67
3D4E09A8
BD8C394D
3E48DC8B
3E073F95
3DD71569
BE1763FE
3D1384D5
3CF6F0BA
3E30B03B
BDC62FE3
BDE1C8B7
3E69BEEA
BD6E1EF8
BD2FEC94
3DC969EA
3DE1B322
BC84A34D
BE2A4936
3E01ADF5
3DEE3F02
3D98D4D8
3DE17695
BCD1A283
3E1EFCE9
BD93B708
3E0AA733
3BF5CEC7
3B8E1860
BD99135D
BE00DCE3
BD3DBB08
3CE7A643
3DDC1E01
3E16A0AB
3CD62944
BE033827
BE1E3169
3D8187DC
BD78A83F
BDCA631B
BE006384
BBD40813
3E16CDD5
3BBA6BCF
3E02BDBE
BD2AD9B6
BD0BF16E
3E7A951A
BDAE9F37
BD74F440
3D5F17E0
BE3886F2
3CBB087A
BE050CFF
3D80F743
BD89825C
BE31C706
BD809613
3C97F25A
BCD991D2
BDBEC6D3
BD81DEB8
3DE42372
BE0DD7EB
BB1040C0
BDB50DF6
3E1BF840
3D80E47F
BE2B91E7
3E0A6F5D
3D4BD33D
3DA70DC6
BE2FEE81
3E0BDB8B
BCC237DA
BE159DC0
BD1484D4
BDE65BB1
3DE1B492
3D4CB714
BC782262
BC83A718
BDA6C22E
BE100CBC
BD7ECB38
BDE17D75
BA4D6283
BE19E0B0
BDAEEA11
3D061386
3DF179FE
3E273877
3D9F8AE2
3C9FF4F5
3CD79467
3DC5BEB6
3DDE3948
BE2E7B84
BDCB68FA
BE2A561B
3E0880A1
BC115EB7
3DE6E54A
BE2E1FB2
3CA26517
BC570111
BD4F5A90
BD6E0ECA
BDC345DD
3DD27F3F
3E1CE72B
BD8914A5
BD6165B1
3DCB3F2E
BC07A132
3DA3FC1F
BD967037
3DA8FD7E
3D860A82
BEC580FE
3EDAD11D
BDDECD6B
3DE6F064
3ED019C4
BEC10430
3EA537C4
3DD5AFF6
3E1A4F68
BB817B00
BCD35944
BECE0759
BE251749
3D9FC72A
BDA055C8
BE380DD0
BDB2358A
BD4FCF38
BD0A4D42
3E0D9E32
BE922400
BDCCD1EF
BDB183AA
3D9C8D51
BEBD29EA
BB93B32A
3B9AFCE0
BDE3966F
BE08DFD9
BE897F7B
3E9186D1
BEE1CDB1
BD03AE4C
3AE27D80
3D5F735D
BE1B589B
BDE613CE
3C8BD2B5
3E05DACB
BC61DC19
BDC0E717
BE30155F
3DC4A748
3E32F3D0
3E749982
3EB8C577
BE8CFCDE
3C96AB5C
BE940BA1
3E023B67
3E8492D3
BE051B42
BE23100C
3C1D76FC
3E233FCD
3DAB2E4C
BDF1361E
3E10499B
3E362053
BDBF2C2F
BE172B83
3D6FF09E
BE104C2A
BDA8FFD6
3EA94832
BDF10BA4
BBE1CA2D
BDAF1EF9
BE748D20
3E9B823A
BE534AA5
3DDBE58A
BD381DD3
BD330EFC
3DB3A952
3E9650ED
3E3D8877
3DFCF44A
3D1324D0
BC818DBA
BDEE8778
3D1F7458
BDFB880A
3DF25D15
3E8FB9A3
3DF3EBB6
BDC1502B
BE04321E
3CF84F2A
BD99CAFA
BDF602E2
3E60E0C6
BDA551DD
3DFF871D
BE890508
BCC1BEC1
BBF5EB20
BE0D8879
BCD0F16F
3C154EBB
BDB30107
BE47C447
BD915318
3D9263B9
BDEAFBCD
3DA1BEDE
3DFE89B4
3C96EF15
BEA22FA5
BF3A4252
3F024205
BE184070
3E6DADF9
BEBC382A
BE42FAB9
3E17F77E
BE0D860D
3DC33059
3DC2691B
BD74FBC9
3CD972A5
3D974DF2
3E9C3A7E
BD9B19DE
BC7C3A30
BCA7CD2B
BD4801B5
3E4B6A46
BE2D989E
3E92D982
BE226215
BE14900C
3EBF324A
BE3B01E3
3CF61808
BDC3D48B
3E429000
BC687650
BD1E470B
BE0B4261
BE25976E
BDDBA9C0
3D1655D4
BD1814B2
3DEFBAFE
BDE1EF53
3C6126A6
BE20DD67
BE3327F6
BD16BD28
3CDF4B6F
3D99FDC8
BEA406CF
3CB645C9
3DDCE67E
BB2003D6
3E09CAE5
BEAEB015
3E189721
BE4C9A8A
3E2C7B81
3DE607D6
3DB5F5A3
3DEEA9DA
3E04CF37
3E35EF9D
BD58CAFC
BE3792B0
3BDF2068
BEA0AF33
3E10AA57
3E8327DB
3E960733
3E1A1D5B
3C42B3E7
3E82D3AB
BE70001D
3EAACDD4
3DA27B97
BDBBD9AE
BCF845F8
3B9484C7
BE3C79D0
BCF53243
BE654D9B
BDB26404
BD1C8538
BDEA5C00
BD20FED5
3D9EFDED
BE2E901F
BE1C63F6
BDAD72F1
3E17DC43
3E0C39EF
3D8DB0A8
3E335092
BE186405
3E17F875
3E23F24B
3E128A5B
3DB2CE82
BDCAABF1
BE37EACA
BD07E89D
BCC5CBE6
BE28E9F7
3E087C15
BE206FD2
3E2C4849
BDD97C7B
3DD08147
3E2DF997
3E0D161B
BD3C86E2
BD2955B3
BDB01860
3E07208B
BC30DB50
BE129468
3BC84640
BE297FC6
BDE95950
3D320BB6
3E1A23B3
BE25B7E6
3D80F6A9
3DE3BA4E
BDA40C66
3E1A1DED
3C01390E
BE148535
BD8EA7DD
3DFE0A94
3CFEBB54
BD4504E5
3E0EB795
BD1B16C7
3E1E7842
3CE6030D
3E30D92F
BE1E9DDF
BB5AFA3F
3E2C16E3
BC9ABAE0
3DA6AFF2
3E22B1F2
BBAD58A0
BDF93346
BE0CDA91
3D423B20
BCFC4785
BD3ED54F
BE160C7A
3D06F860
3DA4A80E
BCF460C0
BDA71664
BE04C79B
3D3E9B88
BE110299
BD91F7E6
BA3C7400
3DEC2D02
BE039B2C
3D81B112
BCA631E8
3E034D59
BDDF61F5
3E022759
BC956D98
BDB5ED20
BDD6ADBB
BE2B0898
3DEE59E6
BD9C880D
3E1611B3
3E06C1A1
3D89D0D4
3E0A5A87
3DC9203A
BD394E54
3D0FFE88
3D134D58
3DB3A486
3E25D4B3
BDE8BCA9
3C5466C0
3DB359B2
BDD78A20
3D0FE6AC
BE26DD31
3E02AF99
BE06BAD0
BCB81E68
3E063079
BE23E8EC
3DFD3B32
3E33D8A7
3D0A60F0
BCFF4F78
BD40A2B0
BDF8151A
BDC7930D
3E271E5B
BD983EFF
BE34C4EF
3D90C1CE
BB5D7B40
BE201A10
3E2A13BD
3E2D5D95
3DF4D8C2
3D7F64BC
3D9D6576
BE02D50D
3CC20480
BCE185B0
BE1AA22E
3C1F9881
BCCFCFCE
BEC0C843
3DDD792B
3E11AE42
BDA5EEDF
3EA33091
BE5271CD
3E01749F
BE6CDA0E
BDDA015A
3D72FCBE
3E6983FD
3E3317B3
BE3E3DAC
BCA04968
3D492452
3D16F731
3DE97C76
BDE89328
BE0971CF
3EA13121
3DCD5E12
3E212DBD
BDBA0C15
3E537258
BE377C1D
BDE4B723
BB80FF89
3DC6EF6A
3E2FD87B
BE0E84BD
3BB581B9
BE079D9B
BE2ED90D
BD9FE39B
BDB730BF
3CD50820
BE9738FF
3D63854D
3E10E366
BE3F2A99
3E2C008F
BE9DFDEF
BE957822
BE1A98A5
BE4F935E
BD8F70DF
BDB7E58E
3E71130E
BE750E5D
BE571A46
3E932FD1
3E0D4BF9
BDA2B16E
BDE15FCD
BE33147F
3D0C1597
3DFD84C0
BE4E11D0
BCC73338
BC09DED2
3D8B70FF
BDE155C4
BE198360
3D09C177
BDEC6A55
BCBCE4EF
BE1D8FA0
BC1D97B4
BDF8C774
3E3B0B46
3E22A84D
3E3513E0
BDFDE284
BE107FB6
3D51A489
3DF418D7
BE4C9B3B
3DA48072
BE242E6E
3D926C3E
BDD34AE2
3DA3D7C7
3E16D898
BDDEA774
3E1C7E71
3DC63039
3E089D60
BE34CC49
BE1788AC
BE1F37C7
BE1DF55A
BE1541D4
BDFE86FC
BCDB72A4
BE20A67E
3D5BDB5C
3C96DE70
3DFD0BEC
3D7E6AA1
BE255769
BD3DF035
3ACF9EDD
3E194D53
BDA7928A
3DDBB0A3
3DB5DDA2
3E3CB824
3E3072D1
3E4B77F0
BE232B4D
3DCA1E66
BE0702D8
3B804ED6
BBDC5CF4
BBB51A36
BC449702
3DE98FE5
BDAC46CA
3CF1B9DE
3E355663
3E29ED1F
BDAA4105
3E4C7163
BDF64528
3CC6AAD4
3E12BF05
BE318459
3AA823A7
3E993685
BE12CDE0
BE302A2C
3EAE8A86
BE5BE43A
3D257519
BD22D998
3EBB5D74
BE0583A1
BD872370
3CCA5231
3DB91E9D
3DC41815
BD388974
BE367A44
BE5C9B73
BD4A1F78
3E16D306
3AC9D0BB
BDE306A5
BCED19B0
BE23C8E0
BDC83E55
BE8446EB
3DC9E91D
3D9A52B2
BCD27244
3DAEDEEA
3DF9F60D
3E83B0B3
BE95BBC8
BDF3E4C1
BE057835
3D93A42D
3E2BA169
3D8153D8
3DA1C803
3D9B841D
BE05E570
3C9A5C14
BE8E3070
3E51B095
3B6061F1
3DD67ACB
3EC5FC24
3E6643BD
3E4CE79D
3D3BEC92
3D2485E2
3E956AC6
3DE36F5A
BCBA4730
3E0888FE
BD9FFD07
3DE63CDC
BE43AE14
BE2E3AF6
3E0C75E1
3DF72A02
BC16283A
BDE0F084
BD3B41FA
3D87C3E7
BD666370
BE21D816
BDDCCCA2
BDEEF0C0
3DD91ED2
BCD25965
3DD8551E
BD385B0C
BD88095A
3CEE24E0
3C7B2222
BD3296D5
BE25A245
BBC27E6A
BDD08378
BE49ABF8
3BAC8E38
3D8EF186
3D2634A7
3E078F9F
BDCE66E6
BDF6E9AA
3DDA3BAE
BE2F9DF1
3D9684A5
BDDB6560
3DA4D85A
3E0540B0
BCE35EA8
BD99BFA9
3DF5F134
3D882675
BE19C6B9
3DDF01E2
3E1CA4D9
3BEA1EDB
BD18A884
3E4D65A6
BD6D77E1
BB82D4E3
BB7F7C39
BD3B1768
3E1E0DA1
BD31003F
3DF2EE58
3DE91DEB
BE34157A
3D63B005
3DB3843E
3E3938CB
BB95183D
B9C7A041
BDBE41E7
BDF92E9B
BC2683B5
3D1A461A
BDE145A1
BDC05AF8
3DF6A8A1
3E2C801D
BDA3AD14
BE40C29D
BD640D07
3E0FC8A9
3DA6AAC2
BD264BF6
BDA7E641
BDF9C103
BDAFF0D2
BDB03A0D
3DC10016
BD8A43B0
BE23815A
BDA1EF87
BD910949
BCA266C9
3E1D4552
BDAF53DA
BD7CBDC6
BDB45DB8
BC533E70
BB916620
3E0A326E
BDEB9754
3E1F5DCA
3C6E9240
3D3F783E
3DCFD68B
3D5E5200
BD7D9702
3D17B9C4
3D92E691
3D8A8F4E
3D93125B
3CA75E20
BD96A5E8
BDB1EBC6
BCDD5200
3E226F61
3E0B4A45
3DE6C87E
BD85643E
BD06865A
3B5526E8
BE3929BA
3D497522
BDB7FB6F
3E17D998
BE069A5D
BDFF6986
3CC1F2F5
BE0D6997
3D3C97DD
BCFA0544
3E19EB21
3E222179
BE1D7C3C
BC999398
3E22CA74
BD44C3AC
BD567038
3DEFF6A0
BE2AC6E0
BD9F17EB
BE0359F7
3D82FCF9
3D4D45A8
BDC58870
BDC395E0
3A7D7059
3C9B6550
3D8A6E49
3DB49371
3D06BC94
BE30D686
BC968C28
BDE80D1E
BD03C1E0
3D6BB322
BE0CE2AA
3D986C3D
3E30E591
BD6B6310
BE0D230A
3DFD1B7E
BD958734
BE26A2D6
3DA270BD
3DBC4D2B
BCAF5138
3D889892
3D48F46A
BDC861BF
BCF49F8D
3E150937
BD21044F
3D4D4AF4
3D9CB0F9
3DCA1B46
BD4889A8
3E3064C9
3DC3B082
3E0C89DF
BD784184
3E314CE3
BDA9088C
BC9A577A
3DD1FE55
BDB35629
BC9F74D6
3DAB652A
BD56A475
BD68A730
3DB13156
BDC854E8
3E3039DD
BDBC9BA5
BD1D3922
3E0E1547
3D0423DF
BDF0C011
BCBEC538
3D307DAD
3D16C32C
3DB7523A
BE0E5E6D
3D292294
BCD7A2F0
BE1C2F86
3CE6ABB6
3D235954
BE000521
3E09981B
BE1DC497
3E2171A3
3E19607D
3E2ED299
BCF5EE08
BD04D344
3E0460A5
3E26E4BF
BCBC0080
BC6D0AB0
3DC70B8E
BD3BD3E0
BE0B7386
3D8FF9CA
3DBA3EE6
BDA42D6F
3DA435BE
BCA328B8
BE201739
3BF5CB00
3C5CCDC0
3DCFDE2A
3C9A01A0
3D8CE04E
3D09441C
BE29D637
3DAF9F9A
BDDB3070
3DB2E196
3D00132C
3D76FF64
BE3236F3
3D5C41CC
3E2442D3
BD177C64
3E1E260F
BDC7FA28
3E262B11
3E1CD309
3D207404
3DC3AED2
3E22E969
BDE3DA63
3DAA464A
BDFE07C0
BE0C4942
BE204C8E
BCBB6660
3E17110F
BE0D18FE
BE2CF19D
3E1B9FB3
3D1F606C
BD8CFFD0
3E34EF73
BE204BA6
BD9A5499
3E0549C5
3D83165C
3D70325C
3DDE5A3E
BDE3F81B
BD96970E
BD84854F
3E165A68
3DFACD35
3D9CDB0F
BD6ECFAF
BCD338DA
3E1318AC
BCE425C8
BE0CB446
BDDB3700
3CD3EFE4
3DC98037
BD55B70C
3DBB772B
BD4D893C
3C5F2348
3AFF5F00
3E2D9995
BD52A47F
BE09A32B
3D7F474B
BA92A580
3DFDF56C
BCD07B9D
3D07CBAC
3E00ACBA
3CCC3710
BCCB5F11
3D212F4C
BE05DC56
3D3AD6E8
3D909782
3E00B209
3E128185
BCFB142F
BE2F582D
BD4F237C
BCC11AA0
3E0CB1C1
BD83D99A
BDC10C61
BDAF07FB
3C76F690
BDA6E730
BD45ACD5
BDCA2674
BE2CE75C
BDBC2DF8
BD94F8FC
BDCE1328
3DCC4330
BC9190DD
3DF0CF4A
BDB42477
3DEE25C9
BD6ADECA
3DD20529
3DD49CEF
3DF8C771
BD60B6AB
BE0C08FE
BE23291A
3D1AB7EC
BCBC02A9
3E039428
BEE55193
BD3BF6CB
BDAAB96C
BEBCFE16
3E02DFEC
BD56C688
BE2B9AE9
BE72640F
BCBD8390
3DCA7722
3DF79212
3E3A6879
3DF26091
BD6B0488
BD262758
BC1C71CB
3A4D6D00
3BDC2D03
BDD33F55
3EA856E9
BD1370A8
BE1C99CC
3DB470F0
3D0786F3
BE1D8B24
3D89EBA2
3C44237B
BA886080
3E5A4D01
BE70E011
3E92FC66
3E1D70F5
3C4F7670
BE391CBD
BE1CB9C1
BE1D0A7D
BDD6C199
3D7D90D0
3DD5EB14
BD3DE905
3ECEEEF3
BEBE867D
BEBA79D9
BEA6D9D6
BDBE9ADA
BE15EC70
BECE1536
3DAC7F9B
BDDDF354
BED5BC66
B9F8246A
3D0A66AF
BE32EBD9
BE2E1D8E
BDBAA308
3D9E4AAB
3D0A85C9
3B3164FE
3D16ACB6
3E01B796
3D7F0108
3D56B78F
BDD9C857
BE1340F2
BE340F27
BD21F6CC
BE069C9B
BDB8D577
3D4DB828
3C921A80
BDEBC8BC
3D4AD4F8
BD89864B
3E1BA7CD
3CD83C20
BD5DE8F6
3DA2DC36
BE0F40E4
3DC5ACFA
BD852FAC
BE0EAEA9
3E335FC5
BD26B7F4
3E1C7BAF
BD31CA9C
BD111574
3E1FF56B
3DE5F242
BDF9BFD8
3D64BE78
BDCC4B1F
3E09117F
BE063797
3DFA90C6
BD11D2C8
BE2026AB
BE153385
BD3A93E8
3D9BFDE2
3E2180B9
BE1605A7
BD36C2E8
BDA610B2
3D51D460
3DA7B162
BD9B785E
BE03121B
BC853578
BD332BA0
BD531860
3DE59E2A
BDD0A076
BB0EDDC0
BD9E8FF3
BE062B83
3C4910F0
3DE74CBA
BCDDC950
BDA4F24C
BD907489
BE258AF7
3DD8D74E
3E2EA199
BDBC1308
BD62AD34
BE0C9CEE
3E1AE7C3
3E28CC97
3DFC2D5E
3DC44CC2
BE22628E
3D8F5D40
3E1B43A5
BD7F4FD2
BDDCA23B
BDD4E4DA
BDB37A2F
3CA447E0
BDD06ECF
3DE9746A
BD6747A4
3DDA6F3E
BE203C31
BC335570
3E246ACF
BCEB3B40
BDE17077
BE145C3B
BDBE7AF7
3D644BE0
3E21BDD1
BD9774B8
BD8392AD
3E0E965B
3D9C7C06
BDAB10E9
3D3D5B88
BE13A815
BD87DF06
3D7DDD08
3DC7B1DA
BB9047C0
BD07946C
3E349D67
3E0BB6A7
BCC2AF48
BC9D67E8
3D26DC04
BE1BC17F
3D5C1CAC
BE03ED24
BCE702E0
BC12AA20
BC5D21F0
3D6E11CC
3D28174C
3E25CE1B
BE00C809
BDD78F46
3C974620
BE12F4CC
3DEE88A2
3DCE209E
3C5B6E50
BE25C29E
3E2E174D
3CFD3D80
3E22C391
BDA8B0CD
3E20604F
BDAD1966
3D5B1B4A
BE2C0E4A
3D45C8B0
BE12238A
BE28CDE8
BE1D576E
3C78D8DB
3E321C6F
3E160ECB
3E197341
BD9DE975
BCBBFDC4
BD5A54CB
BE105561
3DB72E4A
3D34696B
3B57F680
3D5EE258
BD5F6795
BE26302A
BE16A376
BD065B70
3E13EDE2
BDEBFB11
3D0CF2D0
BC073FEF
3CDB2390
BCD4F41B
BDFDA1EC
BE2A55EB
BE133576
BDB73F26
3E0108E7
3DC90342
3D037E56
3C3132E0
BCF119C0
BE30194E
3E102889
BD0E8035
BD76A85E
3DEC6753
3E160C63
3DE6B3D4
BE202ABD
3D7F3B3A
BCD9CF33
3E2ACF83
3DED9B13
3D82EE7C
BD8527F5
3E1DD77E
3D96EC96
3E280ACB
3E2D5F33
3D47C5B8
3DC59CFC
3CB0605B
BD3CACAF
BE02936F
BE18324D
3D8536B8
3E095E0F
BE16AC9E
3D466B5A
38F982ED
3DBA9559
3D2AA026
3BF9BBC6
BC543570
BDBC5858
BD1DA03C
3D79A358
BC3561F0
3D3B9C38
3E0CA3C9
BE063C20
BD47EF19
3D530FA0
BD638418
3DE9E67E
BE0F5A6C
BE346698
3CD44FA9
BDAE3A77
BD785ACC
BCE32F9E
BCFA142D
BE22C74E
BBA3D01B
3D208748
3E254268
BE2065B4
BD7EEDF8
3AF7E120
3E2F5717
3DA147FE
BD4B1A94
BD9F887B
3E24E3C1
BDB659C1
3DF1EE8E
3DA3E66B
BCBD778D
3DD5084C
BE12DC6F
BDA122B7
3DF15C11
3CB293B1
3DBDA562
3E125D33
3D9FF5D2
BDDD2C47
3D8845B4
3C949BF8
BCC2B73F
3DCD40C2
3DC562E2
BDE4D861
3DBAC78A
3DA4FE12
3DC77117
3D1C36C3
BDF25727
3CB432A7
3B0D5084
BE0EA0B8
3D83C214
3E1EBDAB
BE1E32F7
BD4CE414
3DA83CBE
BE2D46F6
3E09BE23
3E2838D5
3CE61780
3C8EBD68
3CF94AE0
BD9EAFDC
BE1FF85D
3E0DBADD
BD0DBA94
BE0D2FE0
BD11372C
3D07C290
BDC5942A
BDEA6E2A
3E1E105F
BD30B6EC
BE09F3BB
BD12B880
BE1ED5C7
BDEB4174
BE21D1DA
3DD31136
3B547FC0
3E27B711
3DBF60F6
3D9BB066
3DED2A5A
BDA0A6FD
3E2908D1
3DC478E2
3E19F9EF
BD9268EC
3DD740EA
3DA194BA
3D9E56B2
3C30DB30
BDB0C763
3E07B231
BD1C9E74
3E1EDDAB
3D97395A
BD5C8EA6
BAF7E980
BD2C1A94
3C1AE520
BCD1A7F8
3D76A984
BD72079C
BDBE7E0F
BE27436D
3DF72822
BDD4BB44
3DB64A42
BDEC1E24
BE25560B
3DE19C16
3D87B60E
37DAE000
BA2BC233
3DA9BF84
3E1836C6
BDAD02CB
3DBCABBE
3E57CD2E
BDB6166B
3D80D406
BDFD1147
3E36261A
BDD89345
BD598E4D
BE2CED0E
BDFCB081
BD98EA20
BE1D223C
BDD4E8C9
BD81CC62
BC8882A0
3BBD1E81
BD468D1B
BD7445B9
BE2D48D1
BE36E97D
BD7CB444
BD5BFAD9
3E27613D
BC30C380
BE150F87
BE0524A8
3E1EE291
BDCF5B97
BD843B37
BDB70255
3E2548C9
BD47A8A2
BDD4486B
3DA734FA
BC0B4AC2
3DE52B09
BA93BA67
3DA70ED6
BCBAA5D2
3E3ABC35
3E56BD1A
3DCBC6F5
3DB8ACCB
3CBC0060
3DF8F5E3
3E2A5D56
BCC0ACA9
3DFF035C
3D8FBA60
BCD597ED
BE4FBD17
BDBAD8C4
BE408532
3E16E9D0
BE216DA8
3D370AC3
3E176557
BD80E313
3DC6757D
BD970B24
3DF6603E
3DE3327A
BBA622C0
3DAFA6C6
3CE8AE38
BE304BBE
BE105B4D
3D7C83F8
BDA07A5A
3C0800E0
3DDD5542
3DF9131E
BE1A1FFE
3C646810
3DEA1C72
3E28FFDD
BDAF6A2A
3A32B900
BBAEB540
3CC2A468
3C8700A0
BDB05136
3E15DDB9
3E08C995
BDFE16AA
BDB46919
BDB548E6
BE29A321
BC994BB8
3C90CD18
3DF46B2A
BD873086
BE10D00D
3E0CB18F
BE2F0060
3D3CD8A0
BD1C8C90
BD5E7DDA
BE2FB781
BC106E40
BD312AAC
3DB4D2BE
BD7F4CE8
3D8F2C64
BD94D10E
3DC069D6
3C33D680
BE00F197
BE038A26
BC87CC08
BCA617C0
3DEB09F2
3E2C91BB
3C89AC10
3E212EE7
BD224620
39CE9000
BD97F3D8
BD68BC54
3D2A3A30
3C839268
BDD1957E
BE05B81C
BD95E5D8
3DB9E2FB
3E16C4AB
BE0D8531
BCA2ED1F
BCBD454F
BE59A531
BDC9F918
BCD8876D
BCF2AA98
BD8AE03D
3DEB3082
BE3403C9
BD50DCF8
3DE6B304
3DAAEC0E
3E01C37D
BDDE9D53
BE16EB61
BDDF7715
BE0FF4C3
3D260C00
BD566EEA
3E27400B
BDE86DB2
BD77B952
BE054EDF
BDFE714B
BE114938
BD31A0F0
BE0C026A
3DB04844
BE1B21E0
3DD9ADA9
BCEFAD80
BDF3A572
3AEAF18F
BE3543CF
3E12779F
BE40F125
3D009817
3C4E37D7
BD84A004
3E02B99C
BC2086C4
BE4D58EB
3DEEB9E4
BE34B61C
3DBDAED6
3CE0B592
BD531CBE
BE1819D2
BCFEAD94
3DC4C8FA
3DD4CD50
BDF9C419
3D77D390
3DDE3C04
3C7AE230
BE1F5738
3DB9FB41
3D59710B
BD8DF3C3
3CE70F95
3C6DBDEF
BDDA6E7F
3D83B1C1
3E23AD89
3B004C80
3CC91859
3DDD4D54
BDE458E8
BD0180D7
3DA1CEC2
3DFCBCFE
3DCC4452
BCEA007B
3DF4BE9D
BDD3F2E8
3E05AADC
BD888F8F
3CA03E5D
BC101C70
BDEF542C
BD8B4F5E
BE19BBB9
3E274DDA
BB1E6D80
BB1647F7
3DFC7E5B
BE1BF0AD
3D848451
BE0D8FDD
3DAF02DA
3DBA101A
BDB8EB68
BD980C7B
3C928EB7
3E23845D
3E1129C7
BE073301
BDBC12DB
BE0AA83E
3E1AED87
3E18E21B
BDD22C07
3D81F729
3E10CAD1
BE055711
BC01CBD0
BE15C9AE
BE39F146
BDDEB004
BE1DA6CC
3CCAD17F
3C2CDFA5
BE2C5542
BE1E284E
BB80D920
BD62E636
3DC2A170
BD596400
BE04290F
BE348FDF
BE2E31E4
3DD52FB5
3D1D32F6
3D910065
3E23623F
3E05FB7B
BDA276D5
3D16F17F
BD36FBB5
BDC296C2
3E33E472
3CEE2E92
3D3C0F05
BE1E2D08
3DD051D9
BE2A2EFE
BE310D84
3DB16505
BDA7776C
3E0CA8E4
BD950FB9
BDD76C31
BE45E868
3D959BA4
3E18F8D9
BC3917F1
BCD5012F
3C199380
3D36D695
3D22EF8E
3D0AC551
BD7DDAE5
BD36B344
BDD0E8DA
BC9004E8
3D2934B5
3DEC21C3
BDFA288A
BDDE827D
BD500158
BAC81AA6
3CFB4390
BDE6835A
3D175035
3D9EF315
3C4F7976
3DB93743
BE4CEF66
3E1ED9EA
3E36F8BC
3DEAD528
3E28FD69
BE2913F9
3DA95DDC
BCA2A5C1
3DC057D0
3C085340
BE35132B
3CA9882E
3DD42F4E
3C10E174
3DEC2D6F
3D8E3CC1
3D887E3C
BE0E672F
3D956105
BD2A3F15
BD227A83
BDA8972A
3DF258EA
BCBB67B7
3E6CC6D1
BDA1E9C7
BDD35BF2
3E5DF4EC
3DD62C21
BD900978
3C5574E0
3DA152E4
BCE78BF8
BDE92D5C
BD9344F9
3DFA1DBE
3CD60CFD
3DD7F066
3DE9077E
3D24574E
BCF58CD0
BDAAD45E
3CB29899
BE197FA3
BDB7599D
3DB4D3F9
BD85AA4F
3E15875E
BDE3800B
3E0E9D91
3DDE3193
BBE3CC80
3DA78E88
3E5F7B21
BE6B013B
3DA8971A
BDCC9388
BCB6087F
3E110B36
3CBF2710
3CCF9AC1
3DAB294A
3D85BDFB
BC6279FA
BD8C0775
BD6A5182
3DAFC052
3E47DC68
BDAA200A
3D99B978
BCB7AFF4
BDBB1D17
3D91215D
3E4D673A
BDB46440
BE25B96C
BD744CDB
BE0E5A2B
BD751B53
BCF08653
3D40BD3C
3D34E763
3C83CC5A
3DF80172
BD8824EA
3C8020AA
3D999E28
BE2FC06C
3E8892BB
BE33D568
3D41B604
3D340A4B
3CC0E6EF
3E205F70
BE0AD215
3D586BDA
BDEE28D8
BE33E0F7
3D39F018
BE7F1BD5
BE036139
3CF61C60
BD888EBC
3D592DE5
3DC9D186
3D50F30C
BDB1A6D0
BE34C688
BE289188
3E23C8F3
3DE6CE32
BE75249E
BD8A3EBD
BE31F06A
BD0C3649
3DE46B26
BE80CB44
3DA1F429
3B7B12A7
BE063DA8
3D4DFCAC
BDC79E20
BE2573E3
3D8B0F6C
BD24069C
3D1F9FFD
BD5AFAE0
3B63B4C9
3C7780B7
3E61116D
BDA8FE40
3E17C4F7
3E890B3F
BD71CD9F
3E552776
BE2DFBDE
3D947520
3DB444C5
BE7501BD
BC77A3FE
3DA735E6
3D2BDBF2
3D2138E9
3CF8F693
BE2EC6E2
BDCB7793
BE0A60EA
BE0B9FAF
BD70C615
3DA7DD80
3DED65DF
3DE17894
3D8D97F4
3D185C8E
BDC17A40
3CDF7B44
3E16CC2D
3D99823F
BDED33D5
BE18FE82
3DC241EE
3E29C6A8
BC809A87
BD7544B6
3E2A6217
3DA9085E
3D9C23EC
3BF8D900
3DA84416
BDF0F578
3D91F69F
BD6C8518
BD7E0D62
3E2EA129
3D1506FB
BCC7D938
3CDC4576
BDF603B4
3C92F22E
3E100E17
3E2B8204
BDE37DB1
3C10AD66
BDD1F023
BC0197E0
3E21E999
3CDDBA30
3CBEF2D0
BDF88852
3CF9C070
3DB1699D
3D50EA72
BD113B68
3E1997A4
BE24DE53
BB45C166
BD4FCDEE
BC95EC48
3CD8EA6F
BC88D08A
BBE5AAFF
BDC4BC02
3E108881
BD6646A6
BE2ED5F8
BCD066A9
3D55A240
BB9542FE
3D9709B4
3DD9DB34
3E1BF2A6
3D8B2DDF
3D35A85A
3D90992C
BDD158C5
3E434EDF
3CD00C1D
BE1BCD0A
BD6B9DE3
BE7158E5
BD8916AB
3E245CBD
3D84CAB6
BD9EF5AA
3E197ABD
3DDAF0D0
3DC8B953
3D81DAEA
3D971D06
3E1568FF
B987222F
BD135B32
BDA133D5
BC2B9085
BD8FB884
3E4B168A
3E21E233
BCF7CC83
3DC8DC5B
3E1E95F4
BD364609
BD836EA3
3DC27E27
3C738310
3DFECE66
BDA75B5F
3E65BD67
3D2FFD94
3E1EFD8B
BDF3A5DF
BDC73439
3DAC2902
BC8B6049
3C4DD125
3E0D950A
BE5F91AC
3C40727D
BD843116
3E4BD2CB
BE318C45
BE10FCA7
BC64C98D
BE804047
3DA1FA44
BE207532
3D2B87D7
3D0EA885
3D9BAC83
3D9A70C4
3D50C24C
3D9496DC
3E4CA760
BD3BE6C2
BD81A191
3D188CE7
BD89F2AD
BDFE9947
BE124CFB
3D97979E
BD8DB327
3CB04B58
3C858178
3D1E38A0
BC4509D0
BE066524
BDC4487D
3C8EE618
BD60E820
BE332470
3B959E80
3D59B8AC
BD8A0160
3E0600B9
BDB3ADAC
BE0CB8D6
3E2872E3
BD9C6359
3DEFC19E
BE0030F2
3DAC8CFA
BD36EE94
BD7EBB1C
BDF6377A
3D1B4174
3C0942A0
BD887CF4
3D06E7F0
BDB4A216
BB53A6C0
3D67BAF0
3E0666B1
3D8216EA
3DAACD2A
3E168CC7
3E317279
BD8066FC
3B53E500
BD5005D8
BDCED57B
BD8802D8
3D0DA47C
3E31DA65
BDBB92DF
3CEF89D0
3E1157EF
3D8415A6
BD19222C
3D8B2E56
3D05B66C
BC45C200
BDE6345B
BE16D13F
3DECDC12
BDC4E1E8
3D139A48
3D4D6A08
BE0DF062
BE33B116
BE140372
BD5BE9E6
BDDB00D1
3CECB200
3D00C66C
BE07F878
BD8E83D1
3C8A5198
3D36D148
BE0167FC
3CDE3B28
3E13C093
3BC49B80
BDE9494F
3E0A319D
BD7524D4
BCB95680
BDD7B5D0
3DE468D2
3E23C067
3DBA9D82
3E057D35
BD0E61C4
BE1B9D0F
BD5252D4
3E2C624B
BC566950
3D4EE3F8
3DF77B22
BDED4090
BD0522D0
BE19C74F
BE0D9C84
BDE32DC4
BE1B23F5
3D9479D6
3D9280F2
BDEDAC70
3DDB0256
BD9F63D7
3C761C70
BE166EAC
BCEBDE80
BD7E23EC
3E03E78B
3D504CD4
BD57517E
3DE5144E
3E112CEF
BCD0BCD8
BE0C1B08
BDC8F593
3D8BC1C4
BD712C52
3E059459
BD692E5A
3D9AD4B2
BE05A548
3E2F9C89
BDF3143F
3C4282A0
3DE7C7B6
BE1BB9F9
BC574FE0
BDD3A992
3C6AC080
3E199687
3E28CD27
3E137CDF
3E16E1DD
BE84B206
BD5BE9D6
BD1449ED
BD8495D9
3D998C17
3E80900F
BDBA1C48
BE7012CA
BBD65A00
BDC9B5AA
3DC5CDAB
3DCC2B80
BD7487B0
BE347F65
BD06FB11
3D7E7C48
3D4BE24C
BE0ABB21
BD83AE94
3A3C4628
BDE7EF34
BD53DA21
BD0A093B
3D59539C
3C834168
BE2FCFFF
3E0E78E0
BE010D08
BBF97EC6
BD79CC45
3DC5ABE9
BE15BE20
3CDA2490
BE1860DB
3DA293DF
3BF68F80
BE7DEB9C
3D742A85
3EB94720
3CB6C0A9
3E991F44
BEC61948
BDF3FB9F
3D6076F0
BECEEE27
BD5653C6
BE496E02
3E5E09E0
3E1C5910
BE584C5B
3D1A9A53
BDC2DB77
BD71D5C8
BDACF894
3DAFA545
BC4AF899
BD5B1960
BCB431AA
3E33CE0C
BE1C9C28
BD1D8774
BD48D8FC
3D46B074
3D472002
BE2E79C0
3E2628DD
3E1BE5E5
BDC51F1C
BE379B74
BE14A839
BE075C2A
3D631276
BDB36C6B
3C7CBB3B
3D49571F
3E369685
BD0022EC
3D5601D8
3E1EA4F8
3E007E05
3DDF0ADE
3DE51567
3D307A0E
3D39D6F8
BCC38B48
BE39B597
BE1891A8
3C181710
3E29672D
BD38DFAC
BDBD034D
3D9AF47E
BD84110D
3CDC1D87
3E286A70
BE251EB0
BDE195A7
BD642BD4
BE33146B
BE19005E
BE15D521
3E0796BB
3D6A7DA3
3E20A640
BC6812B4
BDF6052C
3C19B43A
BD18E81E
3D04FD09
BD04A0E6
3E07E2B5
3D9FC331
BBD8D08C
3D87E7EB
BDDB0A06
3D4899FC
3DC8079E
BD83ABE4
BD5FA034
3CB96B33
BE170431
BDFCAA00
3E131361
3C22C9EA
3DE8CDA6
BE394AD2
BC8B9578
3DEC9E86
BDAEFF97
3DC227C2
3C48F010
BD99C39E
BE34A586
BD6F34DC
BE22120B
BE29DA02
3B888A60
3D3D8F8C
BD8BAA2B
BD7A074E
3D4800D0
BCDD1AC0
BD934BCB
BDA33AC9
3D99D63E
3DE9F7BA
3DBCD872
BE1488B0
BDC99A77
3D8652A0
3DAC96CA
BDB0D642
3C36D720
BD99D885
3D63010C
BD9FC889
BDD7D6CE
3DEF805E
BE02298E
BE24595A
BE1051E3
3E164F5B
3DA7D8D2
3DC1D4D6
BDF12376
BD9BBC8F
BDDDCCC9
BD6C7E20
3DA2ACFE
BD7724B0
3E1CBFE9
3E2440AD
3DD5DD26
3E1761E5
BD7DD3C0
3E33427B
3E2DE6C5
BC894EA0
BE0892A7
BD07746C
BD707B0E
BD808148
BC29D8E0
BD6B5678
BDA37F7C
3CECC9A0
BD7BBD72
BE24A648
BE321151
3DFEB00E
BCC7EDC8
BDAFDD9F
BD08A020
BD9EC7CC
BB4305E4
BE214567
BE346270
BE27FC47
BAB34480
BDB239D6
3BAF3BE0
3D8F2B51
BDFB18A4
3DBA4E62
BD456739
3E2E915B
3E06E6FA
3D8765C6
BE308266
BD29FB70
BE1BACBF
BE102073
BCBC5578
3DA919C9
3E048560
BC1CA620
3DC71291
BE34A419
3E0B09F8
BD0DF5E4
BBE8DFC1
3E0F286D
BDDB4119
3D4CEAA8
3E292655
BDEB2289
BE27C2F0
3CACEB70
BD931115
3E34BC72
BDD6D58C
3E05166E
BE03D3E9
3E07DC27
BCD3EB4D
3DE2549C
3D165394
BCDEC948
3D846588
3E2D72A8
BE1BC9E5
3E0B0191
BD2F28A1
BE08262D
BDEC3BD6
3E144E5E
BE1338C2
BE2F1C10
BC0E8C1C
3DA68234
3DBEB8E1
3D28CECB
BB2FA2B9
BC3B5D00
BE2DDE8F
3E01E679
BDC789DB
3CB6F0C0
3C34F9D0
BE2ADF9D
3DED26DE
BC68F260
BD8C3B59
BE05A51B
3DABE21A
3E10402B
BD4F04E8
3DD4471E
BD80CA6C
3D74FE1C
BDC144A9
BD2C6824
3CA1A1B0
3DCA1F22
BD4207B0
3DF21206
3DC308CA
BE19E707
BDA4F996
3E2F6865
3DDA155A
BD79178E
BD914B1F
BDFE4FC9
BE1F429B
3D8008DA
3D83524E
3E13B6E1
3D83693A
3E0B9CE3
BB2484C0
BBC43000
BDF63780
BE318C75
3C4B0150
BE30B259
BDD10E0A
3E21BB3F
3CAEA480
3D0EC84C
3DA5B8A2
3DDCADBE
BDE51529
BD9CC5B3
BE1A1B44
BDC8E123
3E2F6663
BE10A430
3D17A6B0
BD7E3CAC
BDDEA2AF
BDCE127F
BC9D8360
BDFA2A4E
BE0E0DFB
3D5EE5E0
3E0B752F
3C552000
3D93C9E2
3E39AF4E
BDB34195
BD433EEC
BDBFE518
BD54AD54
3DB464B9
BDE0BA5C
3E0BE52D
BC910699
BD7380DA
3D4F9C4B
3D44B1B4
3DDA03B5
3E12FBE4
3E08DF0D
3E072769
3E1D436E
BE100B52
BE35530D
BD2F79F5
3D9EE31F
BD74875E
3C22A2B5
3D878C36
3DD6ACBD
3E0A4725
BDA05DD8
BDB20190
3D2B211C
BD6B4B0B
3DA09686
3DC5F631
BD965EC3
BD3A2084
3E10164C
BD039488
3D0D8288
BDB8E7CB
BCB05818
BD331620
3DB81A48
BE2356A6
3D4B10D0
BD6A3CD4
3E09E789
BE820328
3E268CCB
3E0AD267
3E2B4DF5
3DEE071C
3DE6ECCF
3CB3CBD5
BD211D50
BE384FC0
BDBFE4D0
BD1F36A8
3D94A73D
3D66FF0F
3E17CAE5
36DAB90F
BAA769E7
BE2A6EF6
3DB23A59
3E08FCB5
BD508E30
3CF306D6
BD0AE609
3D89EA9D
3DE90C58
BE21FC60
3E1233D5
BCD9BE08
BD93929D
BB8F0760
3D15ACA6
BC32B1C1
3E0BF2E7
3DD8CAF7
3E0EADC5
BD0C33E5
3E2FEAB3
3DE1C162
3DE1B252
3DA8935A
BE25D193
3C8FE4B8
BCBFF80C
3DF18EE0
3E0EA975
3DC6D551
3E0F1DBF
BCE91B92
BD7C6DD4
BB265B34
BCF29774
3D0531A6
BDC45E6E
BDAA221C
3DEB7F7A
BD647AD0
3E2E17AF
3BEEFEC0
3D873C85
BE1174A7
3E015908
3DB06B20
3DF2A5B2
3D282B2A
3D275F47
BE11DF23
BDB36F69
3DD1568E
BD5AF0D4
3DECED49
BE0AF61A
3D8D100C
3DBD993A
3DED5436
BE03E9B6
3DCB78EE
BD9C2678
BCEC6058
BD5DA9AC
3D6D120C
BD734D97
3CA740D5
3DF2C682
3E1BCBD7
3DA93ECA
3E16BEC3
3D1CFF3C
3E28F027
BE2398DD
3CFDE748
3DE338D6
3DDCE98E
3C0E85A0
3DA46EE2
BE2FA2D2
3DE68ED2
BDE6E6B9
BD50BD58
3D0E9694
3E075F87
3CA7D8D8
BDA035A1
BE07E588
3DD2A15A
BD879BBD
3C7DF550
3DA42B3A
BD020DE8
3C8951A0
3C6DAD80
3C9A2350
BC165560
BDBCE5C6
3E0DD27D
3CBEEB50
BD5F2322
3E16D205
3D98D73A
3D9780D6
BC8EE108
BE10DFBD
BD88C8EC
BDC07F77
3D2009AC
BE0F7DBC
3DA01372
BDC14E5C
BCF1C4E0
BE20C712
BE328943
3C6D06C0
3E048A27
3CAFE1A8
BDE57712
BDB3B7F2
3D2A31D8
BBDB70C0
BE01217C
BDB819E7
3D2452AC
3DA416D2
3E348077
3DA70DDE
3C1A8090
BD2C9490
3CA19AF8
BD41306C
3CC671CD
3E141FBD
BE273B9F
BD9F97A7
3D898CDE
BE32485B
BCFCC7A8
BE2A0198
3E150CBB
BDCA3977
BD31E094
BDDFF1D5
BD411090
BD0B37EA
3E073B22
BE302556
3DF3A406
BCE48DD0
BDCDE7EA
BD26656F
3DC681A2
BE2B76B2
3D814C9E
BE24573A
BD94333A
BD3BCF80
3E060DB9
BD1FEEDC
BB8603CB
BE0D4FBD
BE12E9AD
3D694F7D
BE30F091
3D91848C
BCE3D570
3D301357
BD2CBAD4
BD8ADE91
3D68B740
BD2AEAB3
BE2A8943
BDF41F4E
BC3F78DC
BD3A0BBD
3D20465E
3E071BDB
BD663DDC
BD890A57
3D31FCFC
3DEF181E
3D9179FB
3E2A1429
3E1A8F22
3C96BE58
BE00D050
3E0707B8
3E1721E1
BDEA5741
BDB85DD1
BDB68785
3E040EF7
3D0A78BC
BC91C03D
BB2947C0
3D936E34
3DEBAC46
3E33058B
BD7F24EA
BE0C0138
BD4C4750
3E083509
3D5D0E3C
BDB57AE7
3E044727
BDDAEA52
BDE77B75
BDEE0D7D
BD1FCFF4
3DB36ECA
BC541E10
BE24A18A
3D8532F6
3DB89A82
3D608A4C
3D3B4BAC
3D37E05C
BDCAB4C1
BDDD47E4
3D8D72E4
BD0DF7BC
3DB64292
3D2F117C
3D29E3F8
BCE892A8
3E1482F5
3DA71A92
BCAEB450
BE1386A9
3DC1D072
BDAD93E5
3E2ECFBD
3D8F347C
3D63716C
BC830B18
3DD30A02
3E129FC1
BDBA4C6E
BDD8BAF5
BDF6B8DA
BE111224
3E086333
BD2D2430
BD560FAC
BE1BB843
3DF281D6
3DC7AEEA
BD76187A
3D1D15E0
BC8FA038
3A99E280
3D7A7E50
BDBE97C8
3E1793BB
BE04A878
3DB5B966
BD2AC9BC
3D739AC0
3E04C0AB
3D88076B
BDD0951F
3D9B232C
BC9C9E18
BD02A556
3E606115
BDBB883D
BD965433
BBCDB460
3E27DD1E
3D90535E
3D881B06
3CEE5043
3D3156FF
BE3AA3C5
BD9BC19E
3DB4178B
3C0AB92D
3E0EDEB9
BDED98B5
3DBF4ED0
BE115103
3E13C2F1
3CB1480B
BE3FCE47
BE034396
3D1A639C
3A370200
BDC03455
BE1D18B2
BE316A2E
3DF437AD
BE405604
BD6091BA
3E0609D9
BD63E787
BD238CE5
BCA58560
3E48AEC1
BDC7726D
BD2887EE
BD910A4D
BD764F8C
3E3AECE7
BD84AC8E
BD95C2B3
BD48D0CF
3D8EC6CB
BCD91F62
BD446764
3D85464F
BC8A7904
BC88FD92
BDE3F62D
BDA0B2D7
3DEDD8DF
3DC392E2
3E26966A
BDE92131
3E2CC643
BE217FBC
BE158A9B
BCA523A4
BE156549
BDD5F218
3C411D90
BE0FA614
3E2ED420
3DFE38F8
3D825994
3D7529A4
3E37A5CB
BD94A5BF
3E28564D
3CB575D0
3E177A17
3D50DAC3
3BDA888B
3D05DA5D
BDD287E6
3E0DB448
BDD78BD4
BDCE95B0
3D4D971F
BCB572A3
BDE7E341
BE127C78
3E14FB1B
BDCBDA8B
BCA39A30
3D535427
3DCA4D86
3DCF1130
BE24EDC7
BDEE0390
3DE25F98
3C29D195
BE245540
BD2AFEA4
BE149463
3E131FFD
3E23882D
BD6A917E
BB8E876B
BD7191FC
3E02A452
BE2A5605
BE15391C
3B6E6727
3DB8A6BC
BD5CF27E
BDE6D3CE
3E1E58D5
BD770595
3D9A626E
3C6A457F
3E12F6BB
BE1A19B0
BDA97E42
BDE64F9F
3DBD038E
3E11476F
3D8AF872
3DD11E72
3E277DCD
BDED20EA
BCBB24FD
3E248559
BC9682C8
3E234C49
3DC83DFE
BE2A86F9
BE010300
BDD56673
BDB7E8F5
BDEFBCAC
3DA6905E
BA8AD900
3E02C89D
BE11529A
3E039497
BD8EBDB5
3CEA3708
3DEBBA92
3DAE9416
BE033600
BDC0DAD0
3E0E48A7
BDDB4425
3E2AC0C5
3E10112B
3DE366F2
3D5C38A8
BD55BC74
BD11A7BC
3D3AB5AC
3E31B7D3
3D534B30
3E22491F
3CC47BF0
BD9C881E
3CF52198
BD6DE020
BD0FFD84
3DDCD2C6
3D1B23B8
BDDC9674
BE2CDDF8
3E12E689
3DED47D6
3D7E6E20
3D258B6C
3E06D459
BCB3A610
BE1B6574
3E03FAC9
3CFEF700
3CF2A600
BE19965A
BBF6CC00
BDD1C5B6
BDAFB869
BE1C4822
BD382648
BDEAA15C
3DD80CF6
BE211C88
BC84C9A0
3E00CC2D
BE0DD252
3DF871CE
BC1BD4D0
BE18C8FE
BDBE60AC
BE17E4FC
BD94AC88
BDF6697B
BC9F5C28
3E2C0AA5
BCB46EC8
3DA7B5BA
3E238715
BE02B524
BE2AECB8
BE2CCC75
3DA85DD2
BE0FCB70
3DC55426
3DF16D32
3DE5C6CE
3D17B050
BCA219F8
3C817820
BD378494
3D5DA9A0
BD664B78
BE04F052
3E17F581
3E266653
3DA4F3AA
3DC7607A
3DD633D6
BE2E81F2
3E2D907B
BBBD4780
3E1E6131
BDFBFF13
3DD6ACBE
3D861422
3C5CB610
3D9DBF16
BD09B4AC
BE0EE1D1
3E20BEDF
3E317665
3D374320
BDB1FDC9
BC360F00
3DF8021E
3DCE1306
3D74A078
BD1C2A7C
3DFA2A66
BD4C9004
3E225BDB
BD7FBA1C
3E00AE97
3CB8BCE8
3E13C595
BD1FB604
3D082944
3DE0EE4E
3D43F8C8
BE2C376C
3E2264FF
3D95E59A
3B0DAEE9
BDABDA66
BE05F35B
BD958D19
3DC0C18A
BD42C26D
BD88A2A5
BDB4BF61
3E2D9461
3DD95EC6
BE1F4C5A
3CB7EF7E
BE08E95B
3DF351E8
BCD3FDAE
BD927FDC
BD05E86B
BE25E3A5
BDAA7252
3D82B05A
BD093E2C
3D260C54
3E00EA69
BE3AC7E9
3D31773D
3D79CA4F
BCD48C5F
3DFA9756
3E08DAFB
BC4FA5A0
BDF08825
BDACBC1F
3D303599
BE1BC1F3
3D00404C
3E16F876
3D38DF2B
BC926C70
3D82B124
BDE3C43B
3E85BD70
3DF80379
3DCB6435
BE0E7E5A
3E32F687
BE440968
BDD5DA3C
BDF19C92
BE9C5E25
BD1CE8A9
3DD599BC
BE33908D
3DF09657
3DA34AD2
BD81C9A2
BDE967C9
BDDEA0DE
BD82C432
3995F6C7
BDF72D94
3E76BF9A
3E255DAA
BD4E5186
BD5139A2
BD2F9185
BDEBE908
BD6B64F6
BE0ED33A
BD5B3539
BACFF4AE
3B2E668B
3D84F28F
3D865A68
BC54F528
BC262CA0
BD38AC0D
3DB8AE55
BCB7ECA5
BDA08CDD
3DD67FB2
3D071470
3DF14860
BDFD7166
3C0EA1C5
BE387023
BE18D333
3DEC2DC2
BD110402
BB80F9E6
BE35300E
BE284617
BD86480A
BD7B46F3
3D51C128
3E0EC885
BE0459DE
3C65DC57
3CADE9A8
3D99FB5A
BDD93740
3DB0D234
3D3B5F40
BE02F5F3
BE045C87
3E1617F5
BC9E2B05
BE2D2600
3E0B7D5C
BE80D4E8
BD803571
BEF271EA
3D02228A
3D166168
BE1147A8
BE3592D2
BE1EF08E
3E45399E
BD8255A0
3DFA25FA
BDA63C5F
BDF01DCA
3CA35011
BE2C23C2
3E30DC1F
BDC44BC2
BD033280
3D6C45C2
BE27D2FD
3DFD3BBD
3D8C750C
BD6E4B06
3E068E2D
3DE6283C
BE234CE8
3DA6F786
3E305431
3E1F1CAD
BDFEA8BB
3E22CA5D
3E2A677B
3C6142A3
3B895AAF
BD9ED7C4
BD309D40
BE15A7A9
BE29B1F4
3DF06F86
BDA32556
BD9EF607
BC29994F
3DF9E3BA
BE0C1D3C
BDC828F5
BE11DE8A
3E247E0E
BCF67698
3D345903
BE27356D
BE097920
3C61D122
3E16B7CD
3CA00C80
BE24B8E6
3D7DCAB8
3DF9EB4A
3D475834
BDF64368
3E25543E
BE027D60
BDCAB61F
BD1C3843
BE35DECE
BD26FF50
3DC7403A
3D57B75A
BDC1BFC5
BE202D24
3E237D61
BDDA092F
3DBF3D46
3B3453E5
BD11B668
3B8BE260
3E372A83
3E2CCA2B
3DDBB264
3E28F9A5
3CAEBC36
BD876387
3D9E9FAD
BD7D245B
3E235E07
BD8350B8
3DB1334A
BD29FFB8
3D32EA5C
3E1695E5
3DA91432
3D23752C
3DC89952
BDD9D26B
3DF9B382
3DCDC672
3DD6364A
BB5B06C0
3C8A3608
BD871377
BDA23423
BE16F0C4
3D9F952E
BE063FF1
3DB29BAA
BD04F808
BB066940
3D67ECE0
BD06A754
3D27736C
BE278F35
3DF61B82
BDBC4D1B
BDF5AB1E
BE11A4F8
3DC7576E
3DB2FF4E
BDC7E491
BD1C18C4
BBA95D40
3BEE41A0
BDFD7D0C
3E1468A5
BE0A5958
BE26C1A6
3C2B4BC0
3D71F310
BE07E374
BE1A89D7
3E1B3799
3C373B30
3E2C58CD
3E130255
3C8913B0
BDB91F0C
BDDFB034
3DC72582
3DB81E5A
BDE7D5BF
BDFE0EA4
BD1FD55C
BE31B0A7
3DA2FAAE
3C9A2210
3C9EDD10
3B6314C0
3BFE6EC0
3C03DD70
3D35F2AC
3B84C953
BCBE2818
BD29E7FF
BE2A54E0
3C9A1F4E
3E2A80F8
3DC690D3
3D553AD4
BDA8AFB8
BE198265
3BED25C0
BE038469
BD33E326
3DAE8DA7
3D95891B
3E17DBC5
3CD6E965
BD8485C0
BE06F688
3E08D43D
BD23FC36
3E46F52A
BDF968BC
BC2B1E54
BE2B6824
3D15148D
BD10D4F1
3D2ED7DC
3D269ECB
3D12A470
3E195489
3D57CE51
3D9FC738
BD7858F2
BCC5BA80
3E20A2C8
3DD554EC
3CBA7598
BE23A82E
3E238537
3E2EC077
3DF2CC8F
BBF8D942
BDF79644
3CDA9FBF
BDA25730
BD21897F
3E0D13DE
3D826FBB
3DF89772
3D24A3BF
BDE9E940
3D85AE1C
BC914347
BDDCA71C
3DE393DF
BD877BF7
3DE5C812
3D0B32A9
3DF6BF81
3D78987A
BC9DC673
BD0DAAD9
BE0FCD6B
BD2B7E38
3E2FF9B7
BE2C4CFB
BD319CAC
BE0867B3
BE23A4E0
3CF1E000
3DFA5121
BBBFA6A0
BE217027
BE0616CC
BD6F4294
3DBD96E6
BD96AFBC
3DD4ADD9
BE2C4796
BD01A1A9
BB104580
3DA1937E
BDC1D0CC
3E0ED1C9
3E046FAC
3D3CFCC8
BD12FB58
3E2B2B67
3D3F6884
BD740623
3DEE7E96
3CBD3022
3E054165
BDC7ACF4
BD631C71
BDAA6E50
BDD034B7
3E2063B1
3E1EA3D7
BDB8CC95
3B95D3A0
BE0FC7E1
3D80DE32
3DD1B293
BE1BABD9
BDB8E724
3E2C0893
BD1759AB
3DC975F0
BE2B99D6
BD4FEB48
BE0E918A
BD93AC44
3CB62A8C
BE33EBFE
3E0E0A5E
BCB75BE0
3CE17238
3D9FC82A
BCD5D438
BA99E43D
BC590DB2
BDB1562C
BD1BD42B
3D1F9288
BDCF5D7D
BD404EAC
BD812E3F
3DD73D2C
3E7DA87E
3E286412
BE0DC712
3D91D9E5
BD08F59B
3C8C999C
3DB9B646
BB4EB51A
BD494940
BE2861D8
BE25B157
3DEE1847
BD63F3DF
BD9AF2F7
3DD2E257
3B86DF40
BD0BF524
3DBAFEC0
BD00BA8B
BC816CCA
BC1CB040
3E0CDE6B
BC6DB262
BE13C792
BDA5E803
BCBA65B0
BD8130B6
3E013D79
3DCA2E72
3D4B5EA5
BDF47CEF
BCE1C990
BE2EAE32
BE16E708
BDBCC78E
3DBF69A2
3E3C1814
3D7041FB
3C0DAB7F
BE0DCAE7
BD94261B
3E75BBCC
BD8DD650
3DBB0CB8
3DA00ED0
3D857531
3B686C28
BCFCFB90
3E65C2F9
3E0AC916
BE31263D
BDFCF597
3DAB74FA
BE53F3EC
3D3F7521
BD87F95E
3DF8154A
3D866B55
BE26DE2F
3B2429AC
3CB87DA9
BE330FE7
BE4E03F0
3DC0A176
3C831404
BE2DFCCF
3CC2B26F
BE0B3AE1
3DDEC513
BE064218
BC77F6C0
BE14D91B
3DBDFFC2
3E03A9ED
BC6CCA62
3E351A4F
BDB14430
3E19124D
39942FC5
BDC01591
BD802F91
BC425882
BAB22C43
3CE898E4
BC31F1C0
3DC82506
BBC44E3A
3D8BA419
BE070821
3D5CD398
3D560352
BE1066EC
3E4CA025
3D459CD8
3DDE445C
BD2F6F70
BCAA5BB0
BE0E807C
BE37F06B
3DDF6EF2
3DAD9E3F
3E089068
3DB326E6
BD490145
3D506F1C
3E02A252
3E1CAF64
BE04E646
BDDF966C
3E06A5A8
3A877FAE
BE191D0C
BE448461
BD374E6A
3E4B305A
BE4A91ED
BE51DBE9
BDE21218
3DBB1832
3D928649
BD174FB4
BDEA73D9
3E3F7BE6
3DE312A2
BE461F3E
3DCC0913
3D27B679
BD47AA18
3E12504D
3E1D3D73
3DA6BD20
3D0B8304
BE27F1E8
3DEE2A39
BE2B1719
3E157B7B
3C421780
3E043572
BD9F4E2E
BE265600
BC284443
BD898DF6
BCCFFEDA
3C9C3398
BCD61168
BAE8D35F
BD8CF3BB
3DB5249E
3E0B6DCD
3CF6B755
BE0A1503
3E158827
3E2B0741
3D7EBD80
3E38E4BD
3E0EAEF9
BDA5710D
BD91A49C
3E05A3C0
3D83D0E2
BD92B523
BD433A81
BDC2FD35
3CA3A528
3DBD1522
BE2DB614
3E24A1AE
BE041C14
3E0A8874
3E1B433C
BE0EDFD4
BDEEA6EA
3D15F9AC
BE292291
BD3B6268
BCE311F8
3D38DB81
3D7B088A
BD0E6FA7
BE349AFE
3DE2F6CE
BDA1C034
BE1C2EA8
3AA5EC07
BD0E3B6B
BE02C5E6
3D47104B
3E0AF890
BCD5BC69
BE014C83
3D018E55
BC997A74
BC21DC2C
3DC3F116
BE2A9646
BD6C2A6F
3E6B5DEE
3E3F6F7A
BD7C56A0
3CDE61FE
BD95B9D4
BD613BB5
3E2C5D13
3E508943
3DF530CD
BDBC04BC
BB83A9AB
BE0AFD39
3C204910
BDAF5CBF
3E099A00
BD6D4CF1
BE06DCB8
BCF523BF
BE21B535
3E085E9A
BD2FD1C6
3E142EEB
BD0A91BF
BD96C6FE
3E390362
BE3DDA90
3E2069B5
BE240A3E
BDC772C4
BCFD80AD
BE17292B
3D514E78
BDB32F90
BE04D7CF
3DFBC79C
BE36951A
3DD0B66E
BCD25D78
3E0E3B8A
BD1C1054
BEA14715
3E4B037F
3CC34437
3DDAE737
BE485009
BE555E9B
BDFF0EEB
3D40D0D2
BE2FA908
3DF96108
3E2182C3
3E35ED11
3E192CCA
3E67F88B
3CDFE0FB
3D78C5D0
BDEAD2A9
3DA866B4
3E2C7D59
BD5D0B6A
3E0615F3
3D1F577C
BD1551EC
3D89C66C
BE02DF10
BCFE8690
BE21C495
3CB5BC30
BCB84198
3D1747E4
3DF36ECE
3DE34EFA
3E05E09B
BE2B394B
BD183CC4
BCC80E40
3DF7ED9A
BE1506A4
BD79F080
3DFF4C66
BD92AF53
BDCD1E8B
BCCA6EE0
3DB5BEBA
3D1F1B20
3E10551D
3DBDD0C6
3E14CD37
3E243A51
3E311421
BE0F44E6
3CF7D078
3D7E128C
BCB4A868
3DCF7C16
BE16459D
BCD56960
BD594078
BD17DB0C
3E2C2153
BD52A488
BE0EBDA4
BE20CA41
BE2C40B7
BD2F6A04
3E254339
3DB894C2
BD2B8CC4
3DD0CC02
3C2AACB0
BD3E24F8
3D592C0C
BBEE3160
BDD79730
BD8FC7C8
3E0DF6C7
3D241418
BE04A66D
3D942842
3AA1C480
BCF94630
3DCDFE16
3D9EE341
BD9DC311
3E0593EB
BC122554
BD08D1E2
BDD915BE
3D5EAD24
3E15398B
BE0296A9
BE1D25FC
3E203D13
3D9596E6
BE1BC9EE
BDD0767D
3DDC7B05
3DA7F1FA
BBE088BF
BE06936F
3E266AE3
3D95B3C9
3DB40E8C
BDC93E9D
B9D7EA00
BE2A6236
3E133D7C
BD8032E1
BE0496D2
3D00FA14
3DD9D581
3E04E54B
BDB667F4
BDB38F03
3D9F3A2D
3D2CC6E4
BDDA0A31
BE19F214
BB36F600
BD97124C
3DC35E46
3DA1331B
3D1E01BB
3DBE0866
BC1CAEA2
3C845618
BCB3F50C
BC7567DF
3DAFB646
BE0FED5E
BE2F7892
3D02A4FE
3C2521D8
3DFFEBE2
3DC8975B
3DD09356
3E276B55
3D9E13F8
3C7B3100
3D848017
3E057BD2
BD7FDA72
3C91297D
BD8C07B7
3E037678
BDF31B24
BE1E6EC6
3D089313
BD6AFE31
3C0A6FC0
BE359AF6
3DFA6E3C
BD39FB2C
3E05A491
BE02F975
3DC89D2F
3AB9EA00
BE15DCC7
BD87A025
BD9C380D
3D970DFD
BDA5AAEB
BDAA4292
3DD72768
BDCCB32D
BD873601
3DCD48B7
BD0D9220
3D697114
BD51A678
BD7286E8
BD2CCB0F
BDBFEFCE
3D3CE824
3E110780
BD39AC60
BE1126DF
BD67E40E
3DD5E7D5
3D4341F4
3DBCE0C6
3D9BBBF2
BE150814
39AE8000
BDB683FB
BD59BB77
BD1437FD
3C2FB10A
3DFDB522
3DC568AA
3DE98B48
BD046E25
3A860CEE
BDDC9D98
BD960D5B
3E1E8B2B
BE1080B6
3DAE1942
3E34E019
BE01C427
BE3EEAEC
BE1212C9
BE082873
3E2144C6
3E247786
3DFD0061
3D754F44
3E02CBB6
BDC79B6C
3DF97F96
BCB937BA
BDA3DDE2
BE12ED64
3D61136A
3AFDA568
3E0B9C61
3E083B63
BDABADA0
3D8972DA
3D2AAF44
3DB69DF2
3D52F9DD
BD0480E6
3CC51868
BD783A74
3D99F8F6
3D8D198B
3E301CA7
3DCC079E
BE153B01
BD532BB6
3CE33380
BDE89E31
3C81387E
BD9710EC
BCD91C60
3E11E6D2
3C581DD0
BC892C47
BD58D9B8
BC8EACB7
3DC9892A
3E07F404
39B5FE00
BD9107B4
3AFD6D13
BC70A1E0
3D3374B0
3E265B57
3DA71093
3DD0843B
3D3BFF0E
3E233505
BE3C1972
BD83F506
BD4B8054
3DE13FC3
BD8B6EDC
BD3A9670
BC870AE9
3E269AAD
3D4D3DCC
BE143CB9
BD4D1800
3DCA195A
3C56FB39
BE0B2760
3E1979CB
3E16C5AB
3D0808C9
BD8B0A84
BD311BE3
3BD5FD4E
BE15656B
BD3A8C20
BCB5DE1A
BE32BDB7
BDE10D95
3DE120DD
BE1A219A
3E04D190
3DBC3E14
BDD14340
BE3FB47C
BD0389C0
BE05E1DA
3DC9C276
3E599EF0
BD063D4E
BDA1EDC8
BDB75433
BCB35F8B
BDF317BD
BE304626
BE2E3B48
3E47BAD2
BD5CB0A4
3DAB1CF4
3CCFBC37
BD498706
3DF8237E
BD7D693E
BE1E1EDD
BD641410
3E4C99D4
BE0A981D
BD650216
BDF161BA
BD3978A0
3DE33C26
3DFC64C7
3C28E520
3E0B48C0
BE10E5D1
3E3F5817
BD9C3964
BE05E727
3E2BF196
3E2594CC
3D117A51
BE2EC8AC
3DBED539
3D4E9A81
BDCF9327
3DF39F81
BE306812
3A9D2432
3D8273CC
3D8E1E82
BAD13512
BE352ED9
BC0CA980
BCFF5B95
BD9CEB3B
3B3D6474
3DF6A964
BD8C80F3
BD82A864
3E3933E4
BE19C0A5
3E337C7B
BDDA8C6D
3D6D3B93
3B4AFACF
3E1D3E2D
3DC6B9DD
BD0553DC
3CC89255
3DED79E6
3C50144E
3DB28964
3E1F16D2
3DD791CD
3DAE909E
3E1940CC
BCF3DC40
BDA70182
BE10786A
3C2B30B3
BDA3A8DF
BD31E9F0
BB17F6D1
3E0183C2
BD1A4314
3E04A351
BCB9C0C0
3D9F6B73
BE24E08A
3E21BE0A
3C892B69
BDA95E31
3CDC5E68
BDCA459B
3CEAAB70
3E021049
3DF18456
BE03F30E
BDC446BC
3DAA96A1
BDC50E72
BDC06FD2
BE30F67F
BDA189A9
BDB9665B
BE3151DE
3D5863AD
BE2C9B3C
BE2D81E7
BE26A394
3E2EFD36
3B99E011
3DDBF29E
3D3DA688
BDBCDBFD
BD80CC3C
3DE16492
BCC2E100
BE0B7C11
BCC9B00B
3E0447AE
3E0D7866
BD28ABE0
3DAB8BC3
3CC68759
BE33EB1D
3E08430F
3DD3EF40
3D0A2607
3A2F8200
BD8AB685
3BDDAC80
BD6D72D5
3E1BA2E1
BDD4269E
BDF8E3DF
BD34D508
3D11FB18
3E0B8A15
BE21B44A
3E06396F
3D7FFCAC
BDD209BA
BD40071D
3CD2C276
BD988434
BCC77B65
BE1ECEB3
3CCF2F18
BE09C1E9
3CC38B88
BE0EF339
BD0BE078
BD3983A8
BDE256F2
3C8BADCA
3D3EF194
BE11449A
3DCCF512
BE0E638B
3E0607A7
3C1477E0
3E032C96
3E1AF036
3C3881CB
BDA11E10
BD9DE939
BD949C1C
BD0D0C02
3D36BC63
BE23F91A
3D6E8831
BDC4203E
BDED1AE6
BC488911
BE183AB1
BD251278
BE30D92F
BDDB1196
3D98A38A
BCC90FF2
3D31D4B0
BE130630
BDF9FE02
BD94CDA5
BD8AC182
BDD70FF9
BE2BFE41
BE26D422
BEDEA8D9
3DCD11B6
BD2BBFE3
BEA75CF9
39A2034E
3E8C5F69
3E1952C7
BDCF92B0
BE08555A
3DA0FE28
3A8BD725
BDC5496A
BDC35E8A
3CCF26D0
BE0CA2D0
BDF8C3D6
BE153FF3
3A93B33A
3E0C741F
3E24BB90
39AB5C00
3D2632FF
3DA803F1
BD706CE8
3BB12224
3D305F80
BDF84441
BD30D73C
3E3C7239
BDD03E60
3C20ED9F
3C1FD490
BC931BE0
BBBDEECF
BE120FE1
3DB4B09A
BE2DADD8
BDB8A09F
3DE0DC0A
BE1689B2
3EA87DDC
BE5F0BEC
BE87478C
BD8452A9
BE43E813
3D4177C2
BEFFFB4D
BE314544
BD84D7E8
BDB528FC
BDAA3E9A
3DD39B4B
BBE6394D
BD6060F1
BE17C849
3E1D2FCA
3CC4E95E
BE974282
3D5225F6
3E1D45D9
3B00798E
BDD6A10A
3B5DCEDF
BD810DA8
3CAF738B
3DBCE20B
BC8EAA8A
BD2E7656
BE0CEB6D
BD066330
BCE1FDB8
BCD3F101
3DB414D2
BC1F89DB
BC17B958
BD93226B
3DBAAB3B
3CDF0358
3D0DB70C
3D7D2158
3D9C8AF6
3E2B0BDB
3E242425
BC07EC30
BD85B81F
3E1033CD
BE2146A3
3E215911
BC9B61BE
BD8D1704
3DDD93DC
3DEF9A1A
BD7C484F
BD92EC24
3E179DC9
BDD59BC5
BE32CCE9
BD70AC3E
BE278C53
BDE68AE9
BE04B72D
BE06D54E
BE2D925E
BD51A2B4
3DCEAD4F
BDADC1F4
BD940B65
3E006B08
BE1FD743
BDCFDB4D
BC8180F1
3E3088C0
BDB0AF24
BD52C9E7
BDB14EB0
BBCF5420
BE0EF2CC
BBE6BFCA
3D3F8B90
3CFB9BBC
3E09C25E
BE2914A0
BD9FE079
3CC4ED22
3E005FE6
BE15948F
BD0492B6
3D4F24DD
3E278BAA
3DFF258C
3DDA1008
3E0AA081
BE03C032
3C97DFC7
3D950E44
BD830BDC
BE296DE8
BE042B09
3D8AD17F
3D58B4A7
BD006AAF
3DD89F76
BE0ACBD0
BE0FE1B0
BE174DF3
3E22D2B0
BE12188A
BDDC7C3C
3D943E98
BD6F1EDA
3D99F8C5
BAD8E080
3D9AF091
3DC2DE52
3E058AA0
BE2C99E0
BD8E67E3
BDABCA2B
BC157766
3D8A82FE
BE209E7B
3CD5A6D0
3E201DDB
BE10E52A
3DD72B1A
BE11BEF6
BDEC6A8F
3D63D6C9
3C281FAC
BDBC78D3
3DCB96F0
3DCF3709
BE16F1A8
BD6F4319
3C4E0217
BDB1D620
3DA6D535
BD2E899A
BE2C28C3
BE0F9287
3D8BFB94
BE1D3AAA
3E335979
3E0890B3
3E2D4693
3D7C1622
3CFECE2F
3CF15C1B
BD5C6797
3E172671
3BFCEF2D
BD7A0766
3DB5B1CF
3E1D26ED
3DD8FAD8
BC92728F
BD680415
BE04401E
BD32E348
3E525568
BE21773E
3E2C6456
BC41E1D8
3DB3B420
BCC9F1C9
3DCABFB6
BE27CA94
BE44E160
BE275698
BE0FC0A5
3DD77250
BE2BA060
3C90CEF8
3E22F492
BD1F5B35
BE65550C
BC95EA28
BDB900B0
BD5F6B87
BD4FF098
3D1CCAE5
3E74E4A4
BD154C51
3E22E16F
BCD9FAC0
BE15B053
BB749648
BE121A8C
3E7A2D97
BE393D21
BE2FFD49
BDA92F92
3D51FC72
3E1B2F7B
3DDA04C5
3E560CD4
BD1F286B
BD19BEB1
3D087D66
BE2BB5FA
3E592C5D
3E116FB9
BD919C4A
3DCBC636
BD2E6022
BE3BF5A4
3DA000A3
3BEEA3B7
3DCCF42A
3D9DEC91
BC2A6FE0
3E059626
BCF2BFEF
BA93EAA4
3E07F3BF
3D94C114
BD594B3A
BCE6D162
3DC6B6C3
3E070034
3DEF4D8A
3C879625
BD2BD8A4
BCF78116
BDAF4CF3
3D832572
3CCB3436
3D4BD2D5
BE32AB60
3E1616F5
BE110B1E
BE1224CF
BE04DBDC
3E0943F5
BDC12735
BD9A4C8E
BD95B004
BD9AC31B
BE269D79
BD082070
BDC329C7
3E2B73A9
3DBB8032
3D0A1438
3C64AF8F
3E2EC2A4
3DAEFD3C
3E2EFB37
BD837057
BD9A6D09
3DCBE0DA
BD2405A4
BDB706ED
392B655F
BE1D2030
3CD8400A
BDDD731F
3B856620
BBFF6141
BDCD12F7
BE05960F
3DD72D3A
3E18598B
BD03FC4B
3CEFDAB0
BC2CE301
BE0ABDCC
3D11C9CC
3CA06448
BD1DC852
3C9E0630
BE015CD1
3DB57BD5
BCD5E0C8
BC09EC86
3BFC6434
3C7077E8
3B9CE8A0
BE34B27A
BE3BED94
3E1F25DF
BD66E0BD
BDDE0754
BDB030B3
BCFE5142
BDF01762
BD7F0EAE
3E445CE6
BE1D5E8F
BD843EE3
BE37D59B
3E3475BF
BE2BD12D
BCAAE960
BDE1DDAD
3CF394ED
3E244AA3
3A0FCD11
BD1DD5E3
BE1F2C48
BE118901
BE1D0266
BE367C4D
BE2DABC7
BE13F9AF
BE2FB64A
3CB4C4DF
BDFA2C90
BCEA77F0
3E11327D
BDCED6AC
BE2E51F9
BDBD06AD
BE13A015
3D8BC4FD
3C39FCB0
3D9A012B
BC63F408
3D81F1BF
3DE42480
3D4127E4
3E6533ED
BD321461
3DC82DDC
3E1F3BEF
3D92DC19
3CDEB192
3D3D5A19
BB77DB16
3DEF409C
3CA37D69
3DB3F9C5
BC9F6EDE
BBC31F34
3DFF3C24
BDA3B74F
3CDED2EA
3E290F0A
3D7383FE
3DCFEAF7
3D28AEBA
BE043539
3DD82463
3D968E8E
BE328FBC
3D644D72
BE1EAEF2
BE2252F8
3D9E8DD6
BE2EF3D5
3C5C96A0
BD3EE335
BD604D0C
BBB4A4A3
BE37C636
BD84405E
BDA10C0D
3C187330
BBC5D475
3D31D6F0
3CDFFC40
BD83E9B9
BD8897B8
3D81F38D
3CF90BF0
BE36C138
3DF98F30
3C35A710
3CAE431D
3D8A2592
3E3A3D43
BE0F3996
BE01B6DA
3E292B14
3E375611
3CE97988
3D748064
BD637F3A
3CA13A58
3E0ABA8D
3B2A5480
3DC344B7
BD9F8963
BC9B342D
BE0F77CE
BE21524E
BDDCF33A
BC88AFBC
3E042C43
3E0D494B
3DB5D16A
3D380777
3C2B90BE
3CE6C7FA
BD987F63
3D3494F8
3E0438AB
BCBA75AE
3E06BA2F
BCFEC1FD
BB805524
BC9E57F7
BB88D0CC
BE1DA407
BD066605
3DE1D80A
BD82C998
3E29C4E7
BD4E377C
BD14D32C
BDB50BEF
BCECB6C8
3DA1A776
3D9B2BCE
BE2998B8
BE1D4FAA
BD8831DE
BDF7CE2C
3B951720
BDDF6C47
3E2138ED
3CF44068
3E291563
BE0598EC
3E0CB7D7
3E0D69F7
BC939038
3CA54F60
BDF9F26C
BE1F7ECC
3BAE66C0
BCE7F730
3D0BC23C
BD46FB5C
BD9F2C17
BE1159B7
BC90B6A8
BD945AA3
3DB56A66
BC3185F0
BB00BA00
BDC0117D
BBC2CC60
3D9168BA
3DA7ABAE
BE213AB8
3DC20E7E
3CA5BF18
3E19865B
3E22924B
3DD27C7E
BD942F16
BDA7D2F2
3D3E6EB0
3C089910
BDFC952E
BC96FB58
BDBBB634
3CD01750
3CE9EAA8
3D1F92A8
BDDD57EA
BCD22040
BA2A9100
BE118AB4
3CA502C0
3DE95712
3E000E9B
BC806338
3D754EE8
BE5800DE
3D77980A
3E119DF2
3D68F63D
BE09E294
BD30C05B
BC55963F
BBDC4AA0
3DC3BEFE
BB9CB269
BD8456FD
3E17127E
BB01AD38
3D821D86
3D8D03D2
BD963E8B
BE5258AF
BDB669D1
BD69B048
3DE8D02B
3DCC0614
3DFA6624
3E2C46FB
3DD63BBA
3DA2F960
3DA59A4E
3E13BBC1
3D17B440
BD19542A
BC55D370
3E4B88AC
3E026498
3DB6427A
BD4E5BD0
3ACF0580
BD385FC8
BC913FA3
BDC9B6E1
BDFD1867
BE3539E3
3E3CE66D
BD9955D1
3E2389F4
3D0D5CFC
3E21EA51
BD9CEE6F
BDB85523
3D2A76E0
BD1AB97D
3D13C0A6
3CC22F3D
3E04491C
BDBA0AE1
BDF015C1
3B83CB12
3DAECEA8
3E236477
BD4D8AE3
BDB7A8F5
3DE1D3F5
3E04BFFD
BCD7B229
3C244747
3E068D36
3D966D29
BD989EAD
BD6936AE
3DE52ECB
3D6FC4CC
BD165BDD
BE29C6F0
3DB64EFC
BD24F7DC
BC5F78B7
3B8E6240
3C140D9A
BCBD2E89
3E352A6F
3CEAC452
3D8E63F4
3E1167E9
3D5F6E38
BBE2D0C0
3E062059
BE3AC5EA
3D85C5B5
3DC0B1EE
3D9294D9
3E1F97FD
BD161DD8
BD98EEB9
3D86AB2A
BC586604
BC37E3D0
BE09EB4F
3D507BED
3DE0CAC2
BCD940C8
BDD1FB2F
BDA60E3D
3E284F73
3D1B71F0
BDC7D130
BD01CE93
BD29D2B2
BD912521
3E177D36
BE1D05D2
BE0A0670
3B121CFF
3B10DC40
BD27D31A
BE34DF5D
BE070375
BE1960F3
3DF61931
3E2D1B4D
3DBA0936
3E230E61
3D6E43BA
3C457D40
BE33D788
3E181BC7
3D97113A
3D6C84DF
BB2E3B4C
BE1584E8
3D5A5D84
39FE77F5
BC2E14F8
BD8B14F7
3D48017D
3DA52103
3E071702
3CCB3811
BE0C44B2
BDDDA9AC
3E2E0046
BD08A1EC
3E311EED
3C7F0A57
3DA25114
3DBA9E31
3D49A594
3E170778
BDD30A5C
3DF39E4E
3CDA2B0D
3E1A9C43
3D93E025
3D9E0E9E
BE064121
3C7FE454
BD4979F8
3DEA201D
3C586F20
BE278333
BE15D069
3CAD0793
BE03178E
3D471039
BC768570
3CA69928
BD7EAE07
3E00F449
3D866CA8
3D5DE20C
BE3A66A2
BD327ACF
3DD0C551
3DAAEA1E
BD0C0898
BDEFC9A8
BDD90C17
BB7589E1
3DE30EC8
BE32809A
3D997338
3D55351C
3DBF7AB3
3DB2E0B4
BE0A7EDD
3D191BAC
3DD5D228
3D91C1E2
3CCFA660
3D536247
3E1781C5
BDD5FF11
3D8EB695
3DEC6551
BDBC61EA
3E1DA652
3DE0CCAF
BE375F3A
3D1E1537
BDBBEA24
BE4E659B
3D8F2CFC
3E5C7728
3D25DC14
3DBE1503
3E034653
BE026D4E
3D469EB8
3D64B399
3E0845AA
BDF80E96
BDF3DAA6
3DCA00CB
3E0DEA19
BDF39DF5
BE15B089
3E8753CB
3CD9FAE8
BD1F411D
3C9F90AB
3DE2367A
BD8F2090
BE199CB2
BD9DFF5B
3D03D23C
3E08235C
BD179EEB
3D857C4F
BE263232
BE1E619D
BE185016
BE1DA3A8
BC59D2D0
BD865363
BD5EC4D5
3D77ABA9
BD5EB73A
3E648E68
BE3D6F0B
BDC8AFAF
3DB0F049
BEBC571F
BCAFF6E1
BEA409C7
3E4199EA
3D37EB38
BC9D5144
3DE370D0
BE148CA8
3D1233C7
BE4BC99A
3D4563C6
BD995703
3D53ED74
BC6A2793
3D8CB151
BDB8158B
3E09A9C5
3D89242D
3E26701E
BE1D8BFC
3D0D8AA6
3D7658F6
3DC664BB
3DD3D649
BD61E956
BE24DE27
BE076B1D
3D0D665E
3D8BE61E
BD19764E
BE13A7C6
3DD51E2E
3DB7C062
BC6F1F50
3E066D22
3E0B795F
3C855698
BE1C5578
BD9DD8BD
BDC9999E
BB78FEC0
3DB45C43
3D40405E
3DD0676E
BD55E7FE
3DC5B982
BDEE4DF9
BD9771B1
BD3846A2
BDD88436
BC473B38
3DB2E29E
BD8FE6D9
BD96B0CF
BC2ADDD0
3D8CC7C0
BDCD5BB5
3DD020D4
3D33BC1E
3C945DD6
3DDF9236
3E025842
BDD977BD
3DA4CB4A
BC53CD83
BD759C9E
BE372D8D
BD4BAC3A
3E314257
BE0DFA95
BE020FA3
BE1ED895
BE1CE640
3BFB90F2
3D2A02B0
BD368BDD
BD87A4A8
BD5B0981
BDF9BBE1
3E207BC5
BE2FEC0A
BD9FB99F
3C75A98F
BDAFFEC7
3D8DF0D6
BE32CBA1
3DABFF0D
BDA8F995
3E0B5915
3DD09852
BE103E85
BC9F31CE
BE0C5062
BD85189C
BDBFBEFB
BDF548AE
BE13BEC9
3C63DBB0
3D669F1B
3CFC061E
BDBB4719
BCCA3247
3D697FEB
3D176D2D
3D6C0228
BE26AF8C
BCA2B532
BDB7AE3D
BD9C954E
3E04C9FF
BC37D2C5
BE0E02FD
3DFC627C
3E3ACDD7
BE463346
3DD63D46
BCD14598
BD0346E1
BDBC3EFA
BE196FCE
3D9E44F4
BDB5B922
BDBC5F6A
3D188655
BE2B5E5C
3E464CEF
3E16C00B
3D67E88C
3E2AAF30
BD811759
3E26F1DD
3DC0F16D
3D95F0BD
3DD22E3C
3D802D2C
3D63AE81
BB14A6BD
3D52FA75
BE0210F6
3DD8BCD8
BDF8DABA
3DD9BE40
BC352FF2
BB0CD608
BD6F2AD8
BE00C43C
3E051D6E
3DDE52EE
BD106D79
BE09C134
3D99023B
BD99DF70
3DEA64B7
BE870FC7
3D203D40
BBC06A70
BCB19648
BBC4E9B1
BCB3773C
BD4A46C3
3D6B0253
3C5E3B50
BCEC6BAE
BDFBB42C
3E0FA207
3C119170
3D151F20
3D855E35
3C22ACE0
3D8ECA85
3D1462C8
3E59E471
BC835422
BD722DAA
BC7895BA
BE30E480
3E4B662B
BE107F64
BBEE2CE1
BE31E270
3DB833C2
3D49C8EC
3D23A4DD
3DE91042
3D6F3B4F
3CD6CDDA
3E1C41EE
3E0123D3
3D81E636
BD8B1F7E
BB2F32D3
3D4FC6C2
BEA0CE0E
3C6DDDBC
BD8AB9FB
BD5A8574
BDCB7775
BE549C78
3E4E3826
BE068332
3C744434
3CE54534
BDD53505
3E520CCB
3DEACAE3
3E0AE7AD
3BA4787B
3DE8F582
3D5940C8
BE09B5EB
3CA8E218
BDE4A6FC
BD8B4C85
3E2AB0CD
3D8B2CA2
BD1557CC
3E023985
3DD1BA92
3D9DC15E
BE2044CA
3D37F490
BC98C610
BE18CB3C
3DDA1AA2
3DF6A06A
BE13BEB3
3DE60EF2
BDC96B00
BD09F45C
BDFD90B6
BDDA3CDC
BD14B558
BDAAF616
BCBB80F8
3E0FDA0B
BDF7CD8E
BD880847
BDD4F18F
BE08E4AD
BDA0009E
3DE8C8E2
BE30666C
3C08FA20
3E0EBB2B
BE0BE9FF
3DC73B46
BDBC0B1F
3DA4F2C2
BD740FD2
BE23198A
BDCBD492
3E09C3AD
BE1D7776
BCE34B18
BC1A1920
3D1B9278
3CFF1508
BBDEB220
3DEBBB7E
3DD40732
BE26D1B9
BE21E7B4
3E11462B
BDDA7C69
BD589F12
3D466380
BD374730
3D604D18
3DA8AE6E
BE2318F7
3E2645B1
3C09F310
3C046F80
3D8C9F9A
BD0C8E5C
3D80F69E
BD707156
3E1146DB
3E16E353
BDD6D5CB
BD4DCCA0
3C93BB88
3D6FB9C0
BDF2E03B
3D1707C4
3DDEFFB6
BDA61036
3C9D2320
BE11BA20
BD25B938
BDFEAA51
3D1508D4
BDCFADD5
BDA55079
3E0AD525
BDA59A52
3E1E4D8D
BDA27DCA
3DB7BCCE
3E071583
BE21EFEF
BE222752
3D3BB8B4
3DB6601A
BC807978
3DF4D2CA
BE2975F6
3D9DA1A6
BE2F8106
3D0C0DFC
3CA2A080
3C942290
BD0350BC
3DE3EE1A
3DEC4FDA
3DD21EA6
BD402348
BB6BC800
BD9C163A
BE2779B2
3C77F5E0
3DF3110A
BDFC0D70
3D8E09CC
BE09AB84
BDD85EB3
3DCFBCCA
BDCD843C
3DBAFA9A
3E179AE5
BD98AD87
BD981F55
3CF58BC0
BC8744F8
BD05BC2C
BE329CF9
39C74600
3DB2615E
BD144185
3C132FAE
3B7B4A59
3E1C59B6
BA20DE98
3BBE9C51
3E1BA867
BDBC6E66
BE09152E
3D4E36D6
BD3B8D70
3CB7016C
BCF3133B
BDF4E1B2
3D2E3605
BDDFFC9D
3CEE5481
BDDB9FC8
BE1D0667
3E04E47C
3D67CEDA
3DBB574A
BDF916BC
3DA443BB
3DD6B748
BDA19652
3E175F2B
3DBF7182
3B03BCF6
BD4677E0
3D8DAF4D
3D9FF7AB
3D4E5DCF
3C88B988
BE270560
BE0CA9EB
3C960800
3CE7F620
3DF243A6
BDBFC701
3E0457A7
3DF07440
3E25E46B
3DEFA462
BDB29343
3CFD6DA8
BD1C6188
BD3238D0
3E273B73
3DBA9611
3D2415A2
BD0C3ED2
3D28A726
3CF26330
BCDB8930
BD30CA2A
BD5A152C
3E05F9D4
3C443C7F
3D60CD73
BDEC551F
BE3819FD
3E1C22B0
3E0B0E57
3E2C87FB
BE45E7CF
3D56A54F
BDDCEF03
3DD61FBA
BD976B9C
BDA2A218
3DBB2F5B
BD12D610
3E0AA7AD
BCD83D30
3E0A214C
BD29A03B
BE298142
BD0B752E
3E25E8CD
BDA15EF4
BE07E8A7
3D8929DC
3CC4CDD8
BE04D413
BD1F8884
BE090736
BCFBCBAC
3E28AB50
3E02DD07
BDC2B04C
3DDF9F62
BE4726F1
BBD1CF80
3DA3A1D6
BE25971A
3E1F65C7
BDD7D175
BDA10C31
BD84B39D
3D7796B0
BDE760F7
BDACAD76
BDB0E065
3E169F5B
BE113EC8
3E4766D8
BC4E00CF
3E1C25A9
3CD80652
3E5F4B9A
BE37C421
BE4C0477
3DB42B69
3E5A7C05
3DA89937
BE87F43C
3D72EEF8
BDCEE449
3E011C7E
BE2AFECF
BD80F374
3D1C6202
BE08A2A2
BBD89507
3E1981CC
BD28C762
BDEE055E
BE0F8BC5
3D8F5033
3DE9060D
BE07C2ED
3D23F0E1
3D5154E7
3DE616CF
BD7400CE
BE26E10C
3E049C9F
BD66E5E2
3E0D9578
3E1C64E7
3E4B90AD
BDBC82C5
BDA114BE
3D8E6B65
BD7E38FE
BE32234E
3E045573
3DE67E86
3DC3D776
BCF3BAD8
BCFF9AF7
3D96DF9D
3C56ABBC
BE382BB4
BE0E2AE8
3CD0261F
BE1EC471
3E598ECF
BD509A34
3E57E95A
BB3D1380
BDEF25FD
3DABBAEC
3E208EE9
BDAB9D51
3C8954FC
BDC7282E
BD91F31D
3D6A41CD
3D2911A9
3948435D
3E2A2116
BDA9D9F6
BDA8DAC7
3D565885
3D3276E5
3DB73063
BE289880
BE3CFB72
3E61094A
BE30028B
3CA958D8
BDA4425A
3E0A006C
3D238C3A
BCEF29E2
BDFF8330
3DBCC8CD
BCD17EC4
3E06F4F7
3DE4B112
BDC427EF
BE23DFC8
3E126600
3DC53FD4
3C3C7465
3E2DED94
BDE2263C
BE19143C
3E0D90A9
3CD902C8
BDFF8A45
BD03D89C
BE23191F
3D1F38AA
3D2CF242
3CFADBA0
BE223F51
3D5DF078
BD52091C
BDBBF0BD
BDD801A5
3E18846F
3E2231F1
3DF2FCC7
BD178349
BD517F0C
BCD9B801
BDE78583
BD9B5B79
BCF33970
BE0C3E08
3C96AF65
BD87C846
BC71BB20
3D97B21A
3C611C80
3CD6A830
3D531E60
3D93D012
3DCDB257
BC4820CD
BD8266A4
3E22B597
BD2F8C90
3D8B738E
BDAB420F
BD4A66EC
BDB7C61C
3D629F98
3E2E058A
BDDCAD26
BDD41A33
BD77DBBD
BE14ED9E
BE1362CC
3E166C5C
BD4260A8
3C998719
3DCF1765
BE327EB5
3DB94C73
3DEE26B0
3E20A90A
BDE8B099
BCA3D430
BD787288
3E047F3B
BE00367E
BDAF1407
3CF6E1D0
BD93E115
BE1B03C2
BD52FB84
BE0BE67C
BDD95E4C
3D5C0924
3D31D59C
BDEEC1AB
BC469A10
3CE1C608
3DA384BA
BD823BE8
3DA1650A
3DAE3E8E
3DFBCF5E
BE0A2855
3E2C1F3D
BE204962
3D1B6BA8
BAD6FA00
BDC0DBC3
3DA75262
BCC34778
BE14735E
3D2BAF04
BDA16363
3DABB1DE
3D5A0720
3D17D46C
3D0D27DC
BE0CA462
3E331761
B9911200
3D8DA2BC
BE118BEC
3D6229C4
3DC6290A
BD3AC340
BC948568
3BEC6DE0
BDF397D6
3E062091
BDE4BAA6
3DCA960E
3E0EF467
3E1B60E1
3DD7F54E
3E0AA641
BE05D5E6
BD8DEF14
3D8554C6
BD65B5B2
3D33A1B8
3BA6CD80
3D86FC9E
BE1526AF
BDD54E0E
BE15FD77
3D759545
BDB87609
BE3B035B
BDB59920
3E143405
BE0554F3
BD05FD47
3D00DA42
3D581304
3CF7EEFC
3D76DE98
BC9D47EC
3E017F83
3CDB1371
3D576585
BD403EDC
BE1ACD32
BD5274B8
3CC371E8
BE1E2D82
3C158440
3E0E05E7
BD8AF296
3DBD95F3
3BEF65F5
3A054887
BDBFDBAD
BDD42CD9
3D2105DD
BE28F6D1
BDFBAE9E
3D860D6C
BD8C7E6C
3D5E0BE0
BC9F2EC0
BDB43D82
BDF4F262
3E1EC357
3D9115D7
BD0548D1
BC461564
BDF9D39D
3DAA71B3
BE10668D
BE07DA0F
BE11A7BC
BDF6D5F6
3E03F6A8
3DE333B1
BDBBC2F1
3D437669
3DEEFD95
BE18796E
BE3036F0
3D2E57A8
3D66A7E9
BDA1D487
3D1E8BD2
3C0A791F
BD8D502E
3D1099AC
BDC0CDBC
BE0A8E6D
3D010709
BE2B2B80
3DC97806
3D888CC1
BE321516
3CB3DC60
BE120156
3DEA253D
3E0A1CF2
BC2CC970
3E1EA129
BC0D3DE0
BDA4B38C
3DFAA4CC
3E6636DA
BD4FEE57
3C9440F8
BDB6930B
BE0EB0D8
BCB88FE8
BD4F5D27
BC9F1C13
3E58AF2C
3DBC5182
BD5E27A5
3E16D277
3E35C752
3DAFAD56
3D1B7E18
BB56025F
BD22DEDC
3D634FC4
BD991379
3D143675
BD9395DD
BD9359BD
3E275E09
BE0A66C0
3CD87300
BE066637
BD27B2A4
3E1C25B6
3D76AFDF
BD819924
BD798308
3DE9ED00
BDE9BABF
BD9C6031
3E0F33AC
BD73580A
3D85BA67
3E37B2DB
3DC15CDB
3D3810B1
BE2F045B
BD862DF4
BC94E288
3DDAC064
3E4BBB2E
BDB67461
3E2912DE
3E11D442
BDD03A2F
3CCF0C16
3CF99B9A
3CD4B0D0
BD307C74
3C841208
3DDF91C2
3D3900E8
BDF418A4
3DBDD4AA
BDD21115
3D165980
BDC072CD
BD892A97
BDDABAFD
3DA0D83E
BD00C08C
3DF493FA
3D4D4998
3E33FE6D
3D2D0558
BD9E5482
3CEA8CF0
BDD7AA96
BD149428
3DD451AA
3E078555
BDCDFAAD
3DE808F2
BE0395B4
3CACA6C8
3D117888
BD6ECF86
BE1755DF
3D6E486C
BD086028
BDE63BA6
BDCE12AC
BCD741F8
3DE2FD2E
BE340C64
3D4CBCC0
3CA3A0A8
BD60E474
3DA5ADA6
BE0584B9
BD9315D5
3DF73816
BD9A80A8
BDD92604
3CAB3370
BD99988D
3E0C822D
3CAA6240
3DDED43E
BE25B624
BE04D60F
BD8DB655
BDC86A08
3C1E8C20
3E025BC9
3D516E6C
BC02A5A0
3DA81E8A
BC550D10
3DBC2E8A
BE287B20
3CE12990
3D2DDA24
BCEF0810
3D4DFFB8
3C970B70
3D70C1B8
3DEB4832
3DD49782
BDBAFBCB
BE2C9BA5
BC53D570
3D818114
3D1D1590
BD93AB08
BD669C2A
3E349EDF
3E18E821
BD01C780
BC66E5B0
3D4A4728
BDEF89D8
BC9D3BA0
3D4B5178
BD70DBA0
BE214A0B
3D295050
3E20AE4B
3E16FAE1
BE05473D
BDB31533
3D468518
BD9E4C11
3D8A52AC
BE096852
3E2858C1
3C990B30
3CE06AA8
3DA0FEBE
3DCFA932
BE22A9D4
BDCD1EAD
3D9B8D16
3D998B96
BD7FE73C
3DB3D976
BE213C63
BC28B120
3E224B8D
3DF4747A
BDF3A600
3E2D0E75
BE1AC9C4
3D5EA4EC
3DC106EA
3DD3A8D6
3DA0C1EE
3E15CC4B
3D772DE0
3CC78748
BD3DF004
BE0001EC
BDEED1B0
3AAA2300
3C984CD0
BDE167E9
BD433AEC
BE24D14E
3E23134B
BADEED00
BD730DA4
3D88AB66
BE2CD14E
BCC72A60
BE298EB6
BD1E8514
3E30A90B
3D814816
BDE43327
BE103F83
3E339161
BE125B83
3DB956EA
3DF8AE16
3D4DCC94
3D357DE8
3D442A24
BD6980BA
BDC63163
3D6A8778
BDF5721A
3E2414A7
3E2F1605
3D9BC8F6
BDD9F4EF
BE2AF00B
BBAE8B80
3DD06866
BE273666
BDED62BE
BE10CA0D
BDBB8C54
BE0602D8
BDB700B8
3D89AA66
3DBB3FCA
BDB43630
3DD6B4EA
3C583410
3DDBA182
3D7448E0
3DE6EE26
3D12D888
BE10DEA2
BD7F8070
BD82215E
BCB26970
3C6C8DE0
BCBD7D20
3DD08E56
3B542980
3E1E3DE1
3D4F4448
BDE36C3C
3CEF7D98
BE0632DF
BDE2B0A6
3E3430A3
BE102DEF
BDAA05C2
BD817130
3DB55FDA
BE29CCF2
3D84EDC8
BE12AC03
3CBA5668
BE0A83EC
3D8733BA
3D9685DE
3D308A40
3E08D045
BE12FAE3
3DD2780A
BD467CE8
BD076A94
BE2B26CA
BE2D1CBC
3DC2D6EA
3DFE660A
BDDB3064
3CB0B598
BE05F9AF
BCAC3D28
3D905EC4
3D87B5C4
3C28BD80
BD8D0216
BB0AE140
3E187337
3DC917A2
BE2B7865
BE12C561
3CD61C58
3C967828
BDE6A852
BE0AC77F
3DD51B62
3CED9FF8
BD6E55AE
BE0E00C4
3D05EC4C
BCF5CBD8
BD218B44
3E0A2CA1
BD897126
3E13C1C3
3E0FC65B
BE112B7D
3E2FDC19
BD53E9B8
3E328581
3DEC8DFA
BE1AB124
3E118F8B
BE1AC6FE
BCDD97A0
BE1CAFFB
3DDF251A
BD2B068C
BDD4C891
BC862AD0
3C27B450
3D3557C4
BE07B055
3CD783A8
3C970DA0
3DE931B2
3D5E2298
3E0EAA41
BCBB24F8
3CD869B8
3E2D1791
BDCA2032
3D91D090
BE147AF2
3CE7B118
3CC5B860
BDFE3D60
3D85D862
3DC86D52
BABE7480
BB9F8700
3D8F5612
BE3390A0
3DD9ED9A
BE136318
3E1DA0E1
3C13AE30
BD1318EC
BD8D0644
BCD3DED0
BE23D588
3DE6F2DA
3DF6F446
BD62E4E4
BDCAFE9A
3DEF378A
3CBEF318
BDA69A73
BE2B1E15
BC8F8D68
3E2E9707
BE0C0DF8
BCCA1528
BE24E9E0
BDF40F12
B9491400
BDA3A5EF
BD3E86F0
BE2A8802
3DD6703A
3D115588
3E01D279
BE0C033E
3E2693AD
BD57B186
3D741F60
BDEABBA2
3DD96356
BDE20C34
BDB24D33
BD5BDCAE
BD8D9D52
BDDFDD7B
3E1544DF
BE2FE3F6
3E24399B
3DB7EE29
3D11A67D
BE1A421E
3CC1ADC2
BE2F7851
BE3683E2
3CE5F2D8
3ADB7FFF
3E24B157
BD23A263
BDCC396B
3DF5E96D
BD7DBFDA
3D3FC18A
BDB50A9E
BD0D9D3C
BDE97329
BE45BDDF
BD65B63A
BD96F25D
3E28DDFB
3D6CB21F
BD2B0500
3DD96DE0
3E0CC4A9
3DB9C976
BDF22D77
3CA99EB8
BD721A19
BC810ED8
BD1E4752
BD02B8D0
3E0904D0
BDB0E1BF
3E078E35
3D9DA756
3D94FB92
3E1C8B47
BD2D435D
BCC5DFB8
BD9BCB3D
BC836511
3D73AEB2
3D6BC911
BE065E0A
BDD29B44
BEC55FDD
BE16948E
3E219503
3E2B2C35
BE9126C1
3C45B84F
BD7619D0
BD144F88
BD34494A
BE2B9CD4
BC91C215
BDBF71C0
3E2CE414
3E0868E9
BD11D839
BE158AE8
BCE5F7E4
BDF368D5
3E18EBD1
BE26A79C
BD807DDF
3DD3CCB6
BE322FCF
BD7FF35B
3E12F11E
3E1AEF38
BC990738
3CE6CF67
BE1286DE
3E09A762
3DD0A616
BE0011F4
3CCAAE18
3DA5A4B6
3DF22AE3
BE18944D
BCB86428
3E135764
BE32CD52
BDCCA2CD
3D88FC46
BDB183A7
3BB9BB51
BDED3EE2
BE186DD8
BD4AAB84
BDBE3A07
3D5CD3A4
3D52F3F1
BD8E6D6F
3CCB456E
3DE7B912
BD8C2184
BCA75A43
BDB982D1
BC91CB78
BE1B5A9D
3E2B77CA
3E2C0DCB
3B64FC5F
BDFC7CF0
BE331BE5
BDB731A6
3D579826
3CFFD83A
3CC455CF
BE22DB00
3E11211F
BE1CBA29
BE0616A7
3CC44EF9
BCDFF108
BE3426E2
BCE386FB
BCDD9E88
3D3865C5
3D8B6CAB
BDD43209
BDA84B80
BDE347E5
BDABEA33
BDD1C6A5
BC0584D0
3DC0553E
3E1750BB
3D9282E4
BD75918C
BC9D46A8
3CB761B0
BE2F776C
3DEC7532
3C28D340
3DAD5346
BE1BE34E
3BA847C0
BD8D97E8
BE2E85BF
BE017251
3DC3B46A
3C5C4BA0
BDEF060F
3DE59E0E
BD3AF120
3E0848F3
3C72D470
BE024511
BD94A028
3C07F370
3DA7EB7A
3DC5F21A
3CE22AC8
3C7CBAE0
BD29E7A4
3DCFC532
BDDF5F81
BCBFFC98
BE16099F
BC094F80
3D9BBA96
BDFCA495
BD91EF8B
BD8301EB
BD23B710
3D78C374
3DD11A4E
3D1BDD6C
3DFF12F6
BD41AA58
3DB8C6C6
3DBC9276
BD2D810C
3DD52D0A
BDBFD316
BC95F760
3DA21666
BDAA2408
3D3260E8
3D576BEC
3E04BFF9
3D971712
3CD10510
3CF4A598
3E33481D
3CFE2760
3DCBA716
3DEDCB06
BDC8C26C
BD033858
BCACFE18
BE09FA7B
3E19C3B1
3DD59E7E
BDF02F71
3DDB6552
3C3DD690
BDD6B5C6
3D9FFBDE
3D41D558
BD91009C
3A9C1280
3E11774B
3DA63EDA
BE30EA03
BDF05B0A
3D9D26E6
BE1C7605
3E14526D
3DDA40FE
3DBF9CBE
3E33C0A7
3E111FA1
BDD0F3FC
3BCD4820
3E09542D
BE32708B
BDDE9E11
3D38C194
3E03A071
BE1FF137
3E1FF2FB
BD536214
BC081670
3D15797C
3E0DA223
BDAD5BEC
3DDB12FA
BE005B0B
BD848E74
3DB01B1E
3E18DAD5
3DAE4676
3E099BEB
BE18CAF0
3E005BEF
BC37AB70
3DE680A2
BC1154F0
BE0D0ED1
3D926E08
BD1AF7B0
3BA60280
BE188492
3DD92402
BE080691
3D813028
3DE43F96
3D90F826
BE02B27E
BDAEFFEC
BCA2B490
BDFF82E4
3D6CCE40
3DDB364A
3E25EA6D
BE2002AC
BDC67BA2
BDDB81C6
BDF8F684
BD8F6B10
3D7EAA24
3CBAF250
3C632E20
3E2AFEBF
3D734BDC
3E081C15
3D1F19CC
3E2EB13F
BE29D8EA
BD99A4E1
BD03C3E8
3E2AF785
3E1B6771
BDDC88E3
3E1AB88D
3DA0847A
BE2CE5B6
BE044E59
3E2DD959
BDAC533E
3DFAB0AE
3C81B548
3D30F92C
3D11FC68
BE2853E2
BE1FDF3E
3E25C101
3E1B8CA3
3DE89AA2
3E0320A9
BE197713
BD7D0552
3E0E499D
BDA7E675
BBE03820
BE0BFEC2
BDB2A925
3C8D2B58
BD1E0EB0
3DA2336A
3D804188
3DC32606
BDA21972
BC8836B8
BD8595A6
BD9825B8
BDD35F47
3C95F350
BE0D1CDE
BAA7B380
3E26A543
3D91A552
3E23DB2D
3E10803F
BE2DAF9D
BDCFDEB9
3E1E61EF
BDF5EEE0
BE11A79E
3D980EB7
BE1D97AF
3D2642D4
BDA5F0FA
3DC7A4FE
BDF5B097
BDA65CD8
3E1930ED
BE0E4AD0
BE1B963F
BD2054F3
BE223BE8
BE0D6548
3CF42790
3CA53480
3DD97524
3D4C5D95
3E048C1C
3DA14BE2
BE226054
BE2A4FF2
BCFCEFF8
BDAA801F
3CDF2260
BDBEBA41
3DCE49B6
3D09014B
3E1624E5
3CC86272
BD017290
3CBD6620
3BE83C08
3E011813
3CA98DF0
BDF43563
3D6FDAA4
3D45BB84
3D5E4CEF
BE17E153
BE061BB4
3DEEB64C
3C436364
3D0D1D5F
BD6887E7
BDCD4EB7
BE2B780E
3CBF281F
BDF70B63
BE2B4706
BD86612A
3D1F3A74
3DED8FDB
BD32FE98
3D98848B
3E2428D6
3D197C5A
BE2033B3
3DCFDB9E
BE0775F3
3D092D44
3DD0DBE8
BDC4CEAF
BE2FCB89
BD854D81
BE2C14A9
3E374D6C
BDCBC8DB
BE001A1A
BBA901C0
3D854F3D
3E1CD33F
BD49E0D1
BC8A26E8
BC0F9556
3E1B0A67
3E212CC3
3BCE8CD1
3D22528C
3BB900A0
3DFEA3AE
BDFECE51
3DDA11AF
3B3187C0
BDFE58FD
3D30C082
3E079163
3CBD1CFD
BDEB71D9
3DBA3DED
3D7360C4
3E04CCDD
BE26C412
3B5A64BA
BD75C32E
3DAD02B2
BDEF259D
BCF64628
BDD4C607
BD4A886C
3DC2B300
BE1FA264
BD7F9275
3DE5C92A
BC84DDF8
BD0D21A8
3D865AE0
BDFF4EF0
3DC53746
3D87973C
3D7DC1B6
B9905625
BE2FC902
BE1DD491
3DF4E09E
BC405570
3E2F8113
3DD7B4D2
BE0C2FD3
3DDBB215
3D93E0AA
BDC6D4E7
3D5DE044
BDC91813
BC771150
3D738C6F
BED56237
3ECCFAB6
3D882551
3C431381
3E780E5A
BEB802FF
3ECB0646
BD0C3AA0
3E89C954
BE19FC2A
3DA666F6
BEE09C99
3C822282
3B99E335
BD876CB2
BC2F59BB
3D262BDD
BD489E5C
BE041230
BD99F764
BE6170B9
BDEDEC8A
3E027D74
3E221949
BEC81AC9
3E23C140
3DE7B7B2
BEB630F9
BE15EF23
BDFE934D
3E65FD61
BE500652
BE019EB0
3DD5CB0E
BDD65E24
3C55E8C4
3CE251D8
3D37D93E
3DA5E9FE
BDA8C7AB
BE061925
BEBA17C8
3E8A786E
BE1B5B15
3DF67CD5
3B91AE00
BE5260EB
3E4E0E65
BD8355C0
3EACA0BD
3EC823A3
BE0A3B85
3E18D953
3E17C39B
BD4DA8D0
BE179673
BE74546A
BDA15903
3D824523
BDBB97BD
3C80FE3B
BD0747F8
3DC05520
BDFBFC72
BD323FAC
3DFE99B2
BDB670D2
BD0BBC44
BCC7B0B8
3E343301
BD7BBC62
BD8F42AB
BCF0FB70
BE34F05E
BE059E0C
BDB4A7F1
3CE23B20
3E157D3F
3D7F852C
BDED1814
3E1E7AA1
BDB97753
3E1FBCD1
BDEDFDDE
3E178A73
BDA47AE2
3DF2C182
BC443280
3C8B8AF0
3DBA0962
BD9C5C63
3DED1282
3E1796D3
BE256DF6
3C6A6350
3E1E8C3D
3DC695E6
BE105C02
3E1313A9
BDE11E32
3E25CBA7
3D6F9944
BD3081D8
BD27D740
BDB2948D
3C7C38C0
3DEED2FE
BC03FFF0
3D036430
3C931738
3E2F854F
BE08E6D4
BD7364CA
BC89F5E0
3CF25B68
BE16D9BE
3DFBFBAA
BBA76E60
BDCE3081
3D3F92CC
BE231C6C
BBDF8A80
BE248FF6
3E2D41CB
3DC8D99A
3D8720A2
3DA1972A
BC0C33E0
BDC17FD0
3E1189F9
BD824DDF
BD523CB8
BD256F80
3DCBB80A
BDE2794C
3C4E2C30
BD6657CC
BDBE4F4E
3E138F53
BD85ED55
BDF1FA2E
BE0A3260
3E11349B
3DF53F4E
3D8C5B5E
BDD02337
3D4E9460
BDE88FD9
BDC06FE8
BDC84A91
BDE88631
BDC7F233
BC974B10
3E2F2ACD
3DF7D0EA
BD53AFE0
3E1A2261
BE1AB318
BDB5DE30
BC21A990
3E2193A9
BDDFD1E1
3D70A394
BE2D7AE1
BDA6001F
3D630DAC
BDCE5CE0
BE2EF3C4
3DEEC1BE
3E1E819F
3DBFD5C6
BDE337F9
BDB37262
3DFADD82
BCCD05F8
3D74A528
BE30F02A
BE1D0D65
3DC01CD2
3E2BDAE9
3E0E0087
3E2F0D07
3E125613
3E140397
3D784A7C
3D9F6EB6
3E1A05AD
3E235411
BDF7F587
3DEFF03E
BDB3C58F
BE515111
3DA88683
3E1D1B4F
3D8DC3FF
3DCCCB04
3E4E9AE7
BDFE9723
3DEAD940
3CB63C58
BDCCD1CD
3E0DDC39
BD19CDD2
BE115C77
BDD5B72E
BDB3F3D3
3D2E1F14
BD3A5DC1
3C8DF0E2
3E14C079
3DCF85E4
3E2331E1
BD1915AB
3E119C01
3CB7BB11
BE069E4E
BE31CCC7
3D3AE82D
BD9E6471
BDDB6AA6
3D6D2874
BDEF9372
3E648FA8
BC2A2D94
3C2F1C20
BD888548
3BDE3E87
3DF32DBA
BE02C81A
3D3BE677
3E202645
3D3795AF
BC596911
BE1E161B
BD60D9BF
3DAFE1EC
3E09B026
3E27683D
3DDB64CA
3BD40D48
BE1D7882
3BAFA3E0
BDAAF073
BE7BBEDC
BD36602A
3D8EE2BA
BD3CF006
BE0F638E
BE16A8A6
BD588A00
3D9FD8C5
BE0EFB0E
BE09CC82
BD64603A
BDCEFB3D
3D50B4D9
3DC47580
BEBB36D0
BD8C9EFB
3DBEB65D
BE40E24A
3E48F173
3DC46B7E
BE151A1F
BEA91D5C
BD5E64F8
3E1B363E
3E8A6137
3E9F2AE5
3DB33BC5
BDA1D437
BD45506D
3D5630DE
3DF8CFDE
BC078E73
3E222AC8
3EA10030
BD9F2121
BBD97330
BCB6C4C8
3D8A3487
3D1103EA
3D9F35E6
3E6DD738
BD1B8694
3EB5B171
BE85BCC7
3DA3299C
BE348C82
3BFA5CE0
3E0AA0C1
BD92372F
BD532744
BE4B7B78
3DA518BB
3E5ED65C
BE440844
3E61225E
BE11637D
BE89F62F
BE2441AB
BF071E00
3E66197F
3D326C5E
3D93E7C2
BDA18F31
BE89F64A
3E434830
3E14C8F4
BE4F0CF7
3CA12833
BDDB57F7
3E6B302E
BE2F92BE
3E1004D5
BD1DCCBE
BE2A96C5
3D7096A7
3C83A915
BC04B490
3D16B210
BCA3F978
BC0414D0
3DB6848A
BDDB6649
3DD4666E
BE28678C
3D47F530
BDF13C7F
3CFBDA88
3D496AA0
BE2824B7
BDE62828
BE0FEBAD
38AB7800
3BB84380
3B0BA300
BD9CF4D0
3C9950A8
3E226ABD
BD98FE1D
BDD0F123
3D0D2A54
BD3AA494
3DB09AFA
BE106ABF
3DA512EA
3A2D8200
3DFBAECA
3DF5534E
BE3431AB
BDD11D00
3DB9D5CE
BE30D14F
3E341F0B
3E1D9391
BD70D2BE
BDCB18DB
BDFEAC9D
BDBF3DE8
BDE6F883
3D526020
3D449A30
BC029F70
BE32E836
3C0CEC10
B5CC0000
BE0D552C
BD38EADC
BDBFA322
3D839A48
BDB06020
3CC6B7E8
BD4B5BE4
BDE542E1
3E295F89
BD0F6A64
3DCD5CDA
3E03AF75
BE0178E1
BD17D48C
BB31FBC0
3DB5F886
BD35D70C
BDE66880
3DF9DB13
BE042342
3DE13CC1
BDB103A8
BE0197C8
3E5763FC
3D1F87CC
3E45024F
BE288890
3E02857D
3DEBD156
BCBB664F
BE23D87D
3D41B6F0
BE10C28B
BD99ACAC
3DAA5F52
3C970A09
BE383840
BD3C1485
BD9D0FAF
3DFCED22
3E05CA15
BE081CF2
3D1E2E3F
3CB77B98
BDDA2116
3DD8F426
BE01DE48
3E1A7A68
3DE63F67
3E16DA07
3E26D8C3
3D09474C
BE438861
3D551BD0
3E6044E6
BE00A09A
3C8F470F
BE5C5207
BDF621C3
3E2A9943
3E71B557
3C11A075
3E1FE631
BE002559
BCBC3215
3D95F3CD
BD9AA10A
3E0EC1AB
BDF31B73
BD5A454C
BE36621D
3D9BF97C
BE158F87
BE2711B1
3DA560B6
BDFC07B5
3DFC517B
BDC77AE2
3D8C1C54
3CC2830E
BD38E054
BDB0BE3D
BDDFDE2A
BD129AA8
3E020BC3
3DF105FA
BDA7622F
3E28423F
BE03E4FD
BCF6A2D0
BE1D562C
3E21BA0B
BE136F64
BDB5571B
3B6C4100
BD1C683C
BE0FDDFD
3DD8A39E
BE2B3992
3D336A90
BD5766EE
3D6B486C
BDAC80C3
3DA62A12
3C74C690
3D37F16C
BD288B7C
BC703450
BE289703
3D1C2DAC
BCEE0090
BC37D4F0
3D3CA940
BD85D944
BD87B269
3DEBA906
BDB45C8C
BE10DB11
BD810AA3
BD0CDF8C
3DE4D51A
BCA82D88
BD780A68
BE149A64
3D067F6C
BE1DE1C5
3E01C627
3D18098C
3D3C52C4
3E33EAC7
3DB25BBE
BCDC1890
BD82F4F3
BC549980
3D080008
BDA30467
BCBB9C30
3DF1517E
3E27A48B
BD948E91
BDF91F1C
BC9C6478
3D9ADA82
BDFC7B9D
BDEF2C2D
BBF1A4E0
BDAA1D6D
BE2B21A4
3D85F5A4
BE0CFD37
BC1EA120
3DA1ADE2
3C8696C0
3E1BE671
3E211637
BDE5AF27
3E309DC7
3D8FD9BE
BE12B9B3
3E3001D7
BCFE4718
BC870C38
BE1AE1A4
BE27C961
3E0284D9
3E2F5E9F
BC3ED690
BDFF7399
BE34593C
3DB72316
3E228D1F
3C6373C0
BD473BE0
3E02A1EB
BE33C9F2
BE28B21D
BDED89BF
3E25877F
BCE45BB0
BDCF2519
3DB117D2
BD646A04
3B054FC0
3DF87E9E
BDA2745A
3DAD83B2
BD3415E8
3DE40776
3D1072C4
BCD58450
3DA0C016
BC2FFB30
BE32C012
3E17F66B
BD5CA356
BD0EF75C
BE1D7C03
3DA0146A
3E33678B
3C835A48
3DC3450A
BD3F9898
BDC904A0
3E00B925
BC8F6C28
3B9ECF20
BE03A8BB
BDFD81C0
3D6F5E2F
BD9F85DB
BE3A10BD
3DD3DFCF
BDBA2869
3D049191
3E1F43C1
BDFA2D4A
BDF17927
3D413E2B
3E0D2801
BB7B2C5B
BB9B2A8C
BCFA1977
BDB81A5D
3E0ADD25
BB95618C
BD55643E
3D991A12
BE247783
BD653144
3E14B7B5
3DFDB9BA
BD9109E3
BE0B4B6B
BD3D3AE4
3D60F7A0
BD8B97FC
BCA84BDC
BE27483B
3E239B47
BE2B9333
3DDABC76
3E08D84B
3D42C6EC
3D6D6616
3DE455FA
3D88B4BA
BDE21C21
3D670881
BD67EFB7
B950681A
3D005A6E
BD3DDC93
BD97028C
3CE9C0FF
BDF036C2
3D64A288
3E0C1902
3E22679A
3DFF4A81
3DD27BEF
BE0E7826
BCFE5828
BCA52A40
3E04C3E2
BD314EED
BDE138FD
3E16034D
3993759D
BDC13C03
BD99120B
BCB941FC
3D420229
3CE8A71A
3D8E7979
3DFEB162
BE2E9EBC
3DFDFB16
3DCA090E
3DB772BE
BDB8C93C
3DA4BF9A
BE02CECA
3D111A7C
BD5418C1
BDDF09AF
BD8D400D
BD8F2E7E
3E08274B
3D987A96
3B96C780
3C480B00
3E077474
3E06219B
BE07F90F
BC7124C0
BD9AB985
BDB90B10
3DBFEFB8
BD5034A5
3E1C6CD9
3C21C4EC
BCEC4150
3D43DD76
BDF382D6
BDC004A6
BDED1ABB
BE144124
3D874471
BDA49A7B
BDA182A2
3DA9BAEF
BE34A7B5
3E349D81
3CD7D6B4
3D28D1EB
BD004463
3E39E593
BDF8C315
BDC3B1DC
BDDBAC0D
3E1F905E
BDDEB204
3C3C2F4F
BE0DB686
3B221755
3DFBEAE2
BD7B46EA
BE0BD67D
BE389429
BCF4CE45
3D282624
BD55F91C
BD04F7DC
BE14855D
3DD9B772
BE2E1BBE
BE22EBFC
BD3616D3
BD249F19
3D95B4F3
BA295A8C
3D16B47D
3CDBDFAF
BE21C90E
3E346E3F
BE5FE005
BE32610B
BD81B9C5
3DF261CA
3DABB162
3D4D3C79
BDEC8270
3C821BF0
3DBD299A
3DEC2C4E
BDEE482A
BDA6BF45
3D869C7F
BC6511C0
BDF1A6EE
BD680A27
3E88630D
3E0A3D88
3E13B351
BE3EC27C
3D7AFD8C
3C4B24FA
BE69B7E8
3E85787B
BC8AA3E8
3D6FA774
BDEFE8D2
BD87D1AA
3E1301F5
BE53E662
BE11B95D
3DAD6F9C
3D065C78
3E0B9EFF
BDCC7B34
BD3DCABD
BDE186ED
BD978061
3DFBCDD5
3CE40B52
BD0A3C3B
BE1579A5
BD6531D6
3E9E5BED
BD34F85C
BE035B80
BDAE5B74
BDEC5EAF
3E088077
BE183600
3DA5D510
3C9DEEE8
3DFEA4AB
3D44E258
BD90B34D
3E29A733
3D3521BD
3DB038BF
3DA87169
3D606892
3C8A8E13
3CB31AA5
BD5E5664
BDE0F025
3D6BAF6A
BE33A754
BE0BD156
3D342CBC
3D75B93A
BBAC15F4
BC1F1CB0
BDA02BAE
BD67499F
3D22D7D4
3DA94881
BCA0D6FF
BD5AAEBC
3D870564
3E1CD798
3D52EA7E
3DE22362
3DCE52CE
BE1C361A
3DEF9EDC
3D6BE734
3DCA72C4
BD54E30E
BE79794D
BD168338
3E0E3C51
3E13DC3A
3D1D89AE
BE0670F7
BAB21D3F
BD359755
3E3F36BA
BE4C31B7
BE0D1F2F
3DB6FC40
3EB072C7
3DA058C7
BDE42F17
3D8363B6
3E30B825
3DD8D82F
BDA5881D
3D15B1FE
BE15C143
BE1D51FB
BDF41F0B
3D1F731E
BD0AC387
3E10F092
3CF2DC30
3E77D3E7
3D82ED8C
BCC9EFA4
BE36B25C
3DEA4CB6
BE0C5FBE
3DA40196
3E306B99
BD65B536
BE15CD81
3E0C3C5B
3D82CD32
BE06A314
3E0DA213
BDFBC8C8
BCF53158
BD3D3DEC
BE244215
3D7241A4
3E27DAB1
BCC58958
3E2A5477
BDBDAC4B
3D4F87D8
3E21809F
BD2F5860
3D92BFEC
3DFC376A
3BFE8180
3D0BF5F0
3E111F29
BDD060EE
BBDBFEA0
BDADB7CD
3E2A1887
3D3647C0
3D5F48EC
3DC263C6
BE0B3E0A
3D61A8C4
BD4821C8
BE1F1053
BDFE1485
3D914A36
3DC0ED9A
3DA8C002
BE304076
3E31D1FF
3D2420D0
BDE29E88
3B1AD7C0
3D1BCDDC
3D8E18DE
BDA0ED91
BDD9D419
3DDAB70E
3D1FC3FC
3D495914
3CD7B9A8
BDD3D6C2
3DF48F02
3E1CD821
3C5686B0
BE31FACD
BDFACA34
BD2F961C
BDDCDB65
BE2CAABC
3DD1D586
BE26F64C
3E1E7D85
3D8CDDBA
BD3CC8F3
BE107107
3D31A0D1
3DD3275E
3DBE73DF
3E235BB3
3DB2B17F
BCBAE938
3D9B307E
BE09AFB4
3DC478C8
BDE99BD9
BD176AB4
3C59200A
BD985AB5
BDDF129B
BDE955A7
BD21F167
BC3F2191
3CD39A08
BD221A2E
3DAD2619
BD0A52FC
BE284075
3E30FBF7
BDA878F7
3D2FF270
BBCD2099
3D8771EF
3CB9CD46
BB86C520
BDDCEE44
BDD4B547
3E0B7EB7
3E302753
BDB19D87
3D9A6C26
BD044BD8
3E23CA1A
BD52A975
BDA0DEB2
3DCF77FE
3DBCECC8
3D1A88AC
BDB310E3
3DE031DA
3D900268
3C333684
BDE4C665
3DBC6068
BE06AFA7
BE127BF0
BDC99ACE
BD59B4CA
3DBE78C9
3DD015D8
3D9C44F2
BDC4E744
3DD691E7
3CE398C4
BD7CCB90
3D64BCCC
BE0E85B4
3E240FC1
3D449178
BDDC8A09
3D7ADE7C
BD8FF68F
3D6DBBEC
BC5847B0
3D2C4F50
3C1B1260
3DA4FCD6
BE2BFAB0
3B964EA0
BD933F66
3E2EEB83
BDC5AEBF
BE0823BF
3C086A40
BC9698A0
3DFCA2D6
3C0DA690
3E2DD2DF
BD770F90
BE2448FD
3DAF2B2A
3D47FEBC
BCC836A0
BE0F8627
BE12B356
BD8FAAA8
3CFBE1E0
BE13D710
BDA0015F
BE07EF0B
BDA040E0
BE30FEA4
3DBB0286
3D2017DC
BDF39ABA
BD2A7340
BCCBCB68
BE30C779
BC206200
3CBFE3F0
BD67066A
BE0B6CBA
BE30E430
3CBB4250
3C3BC330
BD80EF7B
3CCEC4C8
BCB6CDC0
3E2282BD
BE1B0EA4
BDBA661B
3DA55B16
BD215FE0
BDDD4883
BE27C7FF
BE146054
BE203E3C
BE1921CA
BE312829
3DCBCDB2
3DE0422C
BE2A5EB4
BD7ACFFF
BC6E5DC1
3D7CE750
3CF18B59
3D7FC904
BDB09304
3DEE0D19
3C2C7270
BDEA2027
BDEA4B54
BAE16342
3C4A83C0
BE10E184
3D61B440
BDB4A068
BE1A7BBE
BDBEF27C
BDA3126E
3D0910AA
3D1231C0
BB8626D2
BDFD83D9
3E256B5D
3BCA4CD3
BDBC3954
3CEBB168
3E15CB79
3D47B1B4
BE22BE20
3E032A8E
BDDF8F14
BE0E4821
BE187FD2
BD6283C6
BE11598C
3E01AD8B
3E126198
BD1D0088
3DD4AA97
BD29A602
3D911C5F
3E1A1338
BE2462E4
BE117912
3E3C6A0E
BCB569B2
BCDE8926
BD0732E2
BD7F96A7
3C1B850E
BCC43797
3D06D7EC
3D3B4A6E
3E044567
3DC08AED
BD7A04C1
BCF4DA8E
3DB95E3D
BD9D0330
BD5204F5
3E107581
3DEB1802
BC174C20
3DC95D6A
3D485FB0
3C59BCE0
3DB6C6F6
BDE8252A
3C2BDF60
BE051FEE
3D3C13B4
BD740D2C
BC88FE18
3BE19120
3DBD4CE6
3D24C4C8
BC18E090
BDAF6274
3DDD271E
3D851944
3E236BCF
BDF42262
BE111192
BE2004A9
BC9F2328
BDEB199D
3DC9527A
3DBB9716
3D2A3E00
BDC0AD84
BCE18228
3D724E10
3D941BA4
BE15BB05
3D0D92A0
BDDC2CEB
3D83EB6C
3E286A97
3D82D71E
3E03BFB7
BDE22A36
BE2EE247
BCD75430
3DE46636
BCB98800
BCA72FF0
BDAD77E5
3E1F543D
3B568F40
3D377AAC
BE28F095
3D3944A8
BC2419C0
3E331F39
3D9834FE
3E0E4FDD
3E0CDC47
3E1F78D3
3CDAD5B0
BDA0BCEE
BAAB9E00
BDB64B3C
BDF55AAE
BD9754A8
3C71C290
3D24E913
3E26626A
BE0C50F7
3DC28EDB
3D77F2B6
BE4423E8
3D91417A
BDB89EF1
3DB23F9E
BE466CD8
BD1C750C
3DA9E92E
3E450F69
3E47B837
3DF362C4
3DEEE5A6
BE30A138
3E0A59BE
BDCA0B3F
3E01E42E
BDD6348B
BD97DA0B
BDA26C16
BCF87650
BCEFC597
3D8D6F0C
3E027CCD
BE28350C
3DB2453F
3DA73DDA
BDAA6DBB
3DBDCF13
BDB03085
3DA687AA
BDE76F5F
3D8E8B27
BE05DADD
3E0BBB9D
3BF6181D
BD9D201F
3DD30FA9
BE2921BB
3E33C9B1
3D545F1C
3D22A718
3D821E82
3D5E5A7A
3C16A0F1
BDC66F5B
3CBF8EE9
3CFA0FB5
3B566EDA
BD47DDA7
3D0595B0
BE191418
3E069623
3BC4FBD8
3CDB8A7E
3D7F2D98
3DE4FD8D
3DE7BA2E
3CF3B5E3
BE01D2B9
3D831DEE

