3D314248
3E7D732D
3E4AF93C
BE569494
3D8006A0
3E3EB77C
3E06961A
3D16CCAC
3E180EF6
3E5653AD
3D8C9F22
3D8788B6
3DD75370
BE040B29
3DC334C0
BE587065
BDDD7460
BE5E2B8A
3E014E48
3D8C6187
BE294BE9
BD5B58A0
3E31D1CC
3E11C1E5
BEA53D3D
BE3A0A60
BE2E5382
BCAC25A0
3DBAE444
3DFB67CC
BDECEDF8
BE2D4C5E
BDCEE170
BEA37B92
3D86439F
BE219C76
3D089562
3E144CD8
3D890DF8
BDC4F591
BD61B777
BE345728
BE3A4149
BBE60400
BE338D29
3DE67780
3CD12020
3EB6A2FA
3E8F5943
3E55A05B
BE3ECA58
3D7D22CB
3E4CC136
BD949DBE
3CDB4945
BE5ACD09
BE08BEC3
BE2232CC
BC9F8617
BE52C208
3DF5842F
3E08C595
BE04C464
BCE0D54C
3EBF6978
BC5AEEDF
3F054DC2
BE3B4B90
3EE07D2D
3DC70BEF
BAD1A5A8
3F341C4B
BEA16361
BE103F05
BEE4720C
3E35B7A0
BE615089
BD439F49
BE146524
3E11A7A6
BF051D31
3CE2B753
BE67E6AC
3E44F31A
3EB63A26
3D8CB76B
3E2F2EC8
BC3046C1
BDA17E72
3E935151
3DF3E895
3E35807F
BEABE2F8
BEA45D1D
BDCB9478
3E0CC10F
3E4213BD
3E2A79CC
3E0881FF
3C8162C0
BD2BA233
3E2B7D6E
BE53B057
BE4991E4
BDBF4358
BE615684
3E3FE3C9
3E62E892
BD8ED668
3E6EE2E8
BDCB0978
BD558D70
3DF36F00
3E0A8C30
BE2F4E50
BDF3BB2C
3D382FA5
BDF74E38
3D13B3D0
BD73EA18
3E230F0C
BE517804
BE4E8CC6
BE04749C
BE284044
BE27EDED
3E536A1C
BE560EA4
3DBF71CC
BE3787B5
3E0D6D10
BDCB48C8
BDBB540D
3E6BF45C
BDA70BF2
BDC8F56D
3E6FDA3D
BE051CB8
3E709621
BA6DF2CB
3C8D8040
3D3F9B1D
BC4FF100
BE4F1FE4
BD0647E0
3E5E654A
3C870AE0
BDEFE1D9
BE32E8EB
3CF68060
BE3359B0
3D74735A
3DAD2E70
BE313FAC
BD3B0B66
BE578898
BE660FA6
3DF737A1
BE0E6D78
BD01CFC0
3F2278FC
3E8C76D8
3EA89694
BE58AE1C
3E19224C
BE4DA6EF
BDA3E83A
3EF0A9FC
BF04E626
BDB2FE83
BE98AFCB
BDA84F87
3D5E5E28
3D814CA0
BE572154
3E2E2B7A
BF0D4B38
BE3B1902
BE283480
3D9D63DB
3F285A74
BCB8BD9D
3E21702C
3E8DDE01
BEC1BF53
3E8C39B9
3E206356
3D075387
BE3059D6
BED33966
BE63686C
3E927628
BD3D7223
BDB77961
BE9DAC5F
BE0562B8
3E7D263A
BE226AA4
3E9E621B
BE63CF1F
3E1F8499
BE678738
BE2C8B2A
3DC95720
BA911164
3E7FB868
BDE07360
3E9CD09B
3DB581A9
BE3B8A94
BCC6CE00
3E2993D8
3E73C111
BE81D725
BE3B6270
BE2C0357
3DBD8769
BE8DF319
BED019FD
3E6B8E58
BD6B2BEC
3EB8CF30
BDB3FD70
BF028821
3E107CA9
3E8AD68F
BE4DC941
BDC6ECB6
3DA30E6D
BDFD094E
3E3F1FB2
3E3A2AE3
BDCA28B1
3E4F56BE
BEF09692
BD6280D5
3D949BD2
BDBD5116
BE6BF134
3CF20021
BE34DB72
3E0F851E
BE07B984
3D48EAA6
BD9CD2AA
BB55CFEB
3DCD77FE
3E46FD0D
BD9C9118
3F0C0D95
3E66B52F
3DE45751
BC4F7E28
3E1C5EE0
3D97DB30
3B829411
BC1DD200
3DFE4B20
3E1848D0
BE51E450
3E167788
BE20B4F4
BD130680
BE47E76C
3E642AC8
3E1918C0
BE53FE80
BC7B2500
3E600B64
BD1968C0
BB7AB000
BD47D6B0
3E25B754
3E6A91D8
3DC0FCA0
BD9E68E8
3D2ABCD0
BE05F0CC
3D9366A8
3E280674
3D8D3488
3CA1B900
BDB95A58
BE2AB66C
BC3F9680
BE2E7958
BE37379C
BDC46C80
3DBBD63E
3E9779E5
3E9EA837
3E30CE9A
3E831999
BDF2B622
3CD10EF4
3ED48B96
BE0EF115
3E3E1039
BF19E849
BE40F8B5
BE93D6A2
BE6E6648
3BCCFB00
3C87AB5E
BE838084
BCBAAA88
BCFFA5E0
BE0EB750
3EAB762E
3B7CFE76
3DA3F792
BDBFAB6A
BE3FB13C
3D65A4FA
3E85B582
3BB43E30
BCD58AEB
3DA75C6D
BE730DA4
3E8766A8
3DF5F250
3E7BFE20
BDEFEAE8
BD6B0C90
BD537610
3E643108
3DF9EEB0
3E09F7E8
3E300BD0
BE0CACAC
BE5BC708
3D9A3408
3E3438B8
BE649B84
3CC96060
3DC540A0
BE7E2840
3D73BAE0
BCD90FE0
3D97A1A0
BE04856C
3E47911C
BD6F2490
BE6CFDDC
3DC7FF00
BD0F8470
BCE4D1E0
BD541480
3E002E5C
BDA525B0
3E16A200
3E75D554
BE54449D
BD880FCD
BE2F0B8B
BE251E54
BE22423A
BDA0C54B
BDC5317F
3B484523
3E00B59C
BE3318C1
BE51FFBD
3DB0731B
3D09B9A0
3E1B3960
3E0BD5BC
BDDA2680
3D3156B4
3D9C7E80
BE3BF6C0
3E1F6528
3E24AD8E
BE724F98
BE3803A3
BDFF740F
BD20B410
BE23FCF4
3CC86272
BD8CCC68
BE096B1B
3D7EF097
BE5DC52C
3E125A56
3BA3FF35
BD3CA594
BE333951
3E6F798B
3C8E3652
BE45076E
3E8736FA
BDE0258F
3E41A799
BDC86F5A
3E56B9E0
3DB234F2
BE8DD9B3
3DE8EA95
3E6AA240
3D1AD9B8
3E73C173
3E65BBD7
3E453070
3DCD3D5E
3DBFADE7
BD05456F
BEA7BE38
BE7DB486
3E0EAA40
BEF343E2
BE3C8BCB
BE3AE718
BC149AD2
3D141ECB
3DB63710
BE750866
BD1DC0EC
BDEBA1EB
BE47F430
BDA0C675
BDA13EA3
BE3EB90A
3E946147
3E1A5041
3D7EAA18
BD111C51
3E33646A
3DCF3F4E
BE3265BF
BE1FEF91
BDD0CB40
BDB8A692
3BE467BC
BDB958E6
BE730FC4
BE44D365
3E647E6E
BE57EAC0
3E1A8570
BE31EFD8
BE1C970A
3E192BF9
BE1F1C15
BE301649
3E798B0B
3E4164BE
BE640998
BE56140C
BD9A6805
3CA7A8C4
BE882EFB
3C8CAC00
BE407BC7
3D819E02
3DD133E2
BD27D03F
3E1FA653
BDE23E26
3E5F75E4
3DE2C467
BC73A840
BE548734
BDC7B9B0
3C2DA280
3DE57BA3
3E395995
BE544CE4
3D8D8D33
3E718D0E
3D56B320
BE57C46C
3E4EA03E
3DC4CA48
BE5D1A10
BE7368A2
3E32C6A0
BE4DA458
3E6699C7
3DB2A650
BDF45795
3DECCFC8
3E1890D8
BE441D10
BC4AA980
BE036978
BD8C86A8
BE7661E4
3D073340
BD3C0DC0
3E334FA4
3E23AF78
BE6DBF2C
BE490FE8
3DB198C0
3DD04EC0
BE1B15C0
3E004FB8
BE101F04
3DAC4120
3E37C7F8
3E288840
3D3319C0
BE38A730
3CF246C0
BD57D880
3BE36B00
BDAF1AF0
3DA44DB8
BDCB8C10
3D38AB60
3CC2A740
3E17AE78
3B8BE2D9
BD02EBDB
3E49B0C4
BD8ABC88
BE62DF74
BE106B55
BE5937FF
3AC04CE9
3E2F27FB
BDB19E38
3DFABD88
3E282F01
3E3DB230
3DFA1DFE
3DE9BAD0
3D3E36F1
BE06CA82
BE32C7CC
BE6A1E64
3E22CEB4
BE84ADBC
BE7F31BC
BCBAFEEF
3E005158
BE18773B
3D8C8BB8
BE607065
3D269F40
BD84F673
3D05FC80
BD8546C8
BDA48998
3E06CF88
BE35E800
BE41A897
3CEFE1E0
3E257F3D
3DB4DB08
3D46574A
BDA3AFE2
BADAC5A2
3DB7A9FC
3E6C50A0
3E630AF4
BC3C5CA2
3DA83C68
BDDC2170
395D3A00
3D27134E
3E0020A9
BD9D0378
BE7362E0
BE5755D6
3C1B3400
3DAE36EA
BD980C91
3D7F35F2
3D185115
BDBDA1E6
3E60EF55
BC5266C9
BE28C4F2
BE05536C
3E260999
BD0FD2A0
3E5BE0B8
BE0C13A4
3E7F0424
3DCB72A0
BC6A1000
3E5684EC
BDCE5EA8
BE1F88B8
3DC68848
BDBBEBE8
3E31B214
BDDA13E0
3CC82E40
3BD54080
BD84BD10
3E687E5C
3E15EFE0
3E3A61A8
3E359B2C
BE17BA48
BE4E9258
3DE4D890
3D9F2870
BDD8DE50
BE4C7AF8
3CADC380
BE4EA9A8
BE5C49E4
BD832148
BC85D600
BE7AE2A4
3DB9E78F
3DC4D8B1
BE00B011
3E4891E8
BE4B3F0B
3E25CF28
BD568CF7
BE62BE90
3E099B80
BE0E3E10
3E16D87C
BC047740
BD0F77D0
3DCAA240
BE162EE0
BE12C8C0
3E3FC0D4
3E0BF1FA
3D828F00
BD575A74
BC65E280
3E25FB28
3D2F5620
3DFB0620
BDE69A38
BE05DEA8
BDC0C4FF
3D6E3870
3DF36D75
3E6DF2BB
BE0F2274
BD8053E0
3DE882C9
3D7F5B71
BDFFF0AD
BE4816C4
3E5E8029
BDC67551
BE267F43
BDBD3B32
BCEC4748
BE38D96B
BD1B6036
3CC7788A
3E242370
3C8567DE
BE1C816C
3DAC8008
BD17AE00
BE4B85F7
3DDE5870
3E0E8C52
BDBC9824
3E1902AC
3DC59F80
3C825EDB
BE0E672C
3E09D8FC
3E10CAC2
3E338FF8
BE5C7C02
BDF3B844
BD34A3A0
3E232E5C
BE3E414F
BD67972F
BDEDF457
BBB426BC
3D87CA4E
3E1FB0A3
3EAB3971
BEF1E07C
3CB74D53
BDE3122B
3DE46370
BE0A3FED
BE12CE93
3DEF2E4F
3C50BB00
BF1F791B
3E8D9E03
BDF3381F
BE0F2C98
BE860C32
3E160F63
3E471CE3
3E8FDF30
BED9E785
3E998EDB
BDFD8D00
BE4E80D4
3D250070
3E8D7922
3EA62C10
BE132D68
BEA94CA3
3D85A5B0
BE3BE86C
BCD8CBA0
3D8CEF38
BC5033C0
BE38708C
3D897188
BD63B210
3E18D660
3DAD1AF0
3E47AC3C
3D8B8550
3E42FA7C
3D778D30
3E3EA2F0
BD8EE9D8
BDCC5BA8
BDC3BA48
BD8FC610
3E2732A0
BDBF7EB8
BE5CE888
BDC85050
3D958490
BB4D2500
3E4C925C
3E7B396C
BE2A089C
BDC44E88
3E376F58
3DA13A60
BD876608
BE595230
3AE88896
3E60BAF7
BE674BD4
BBB225CA
3E6E2DDB
3DBEF4AB
BE460C71
3DCC7D98
BCFC26A0
BAF94823
BDD3B6C8
3CA590E0
3E4F5C09
BD619910
3E5A1F2C
BE3188AC
3E747CF4
3D591790
3E61E733
BD6E9BDC
BE7353C8
BDBF3470
BDE320CC
3E0E3508
3E3723D4
3B9E3FAB
BE5B8BA8
BE037838
BC057E81
3DDEE578
3D80677C
BE4F4FBF
3D3BD28D
BE1BE2F8
BE4DF33C
3DCA5C5D
3D59B5FE
3CBF2A21
3E3753B5
3E17598D
3DDD1775
BE42E493
3D7E9E15
3CDC4640
BCF76B46
3E35B170
3E14C058
3E50D359
BE16DAF7
BE4E4078
BE5889D1
BE330D16
BE10C174
BE6CA815
3E04CB13
BDF73058
3E087A88
3E0EFDA0
3E0D6170
3C4E0DC7
3E09A862
BD0F3750
3D839C49
3D0C6036
BE8D96CD
BEC80069
3D0D392D
3CC2995C
3DE5C7D0
3EA7E48A
BE0F9870
3EA250EB
3E3A30D0
3E69EB5A
3DA73D38
3E1F1FA9
BE36DD78
3D2DFE00
BDF9EE96
3EF1A939
BE057F6C
BD37C1F0
BE728680
3CDF4CEE
BDB9E9D9
BEA3C29F
BEDA0C8E
3D44D609
BF033944
BDD381AB
3E11EA88
BE00E8F3
3D26D489
3DE23ED8
BEA732EC
BE07C03B
BE24268A
BDF8F4D3
3E40B10C
3D8E5F44
BE126952
3DF2AD43
BE028D86
BC333D11
BE2C8FF0
BD9427EC
BCFFD3B6
BE7D7AF4
3DDA4107
3DEB7AE0
BE408BB0
3DC5FAF0
3E383917
3E3C76CC
3E1E399D
3E09D484
BD63C310
3E706C00
BE58313A
BDB5A1D0
3DA39248
BE715798
3E1AF2EC
3C4A4C26
3C0E6727
BC9FD4A0
BC540525
BE12C3E4
BDC396F0
BDFD71F0
BDA1A558
3E0FE7F0
3D8AD740
3E683CE0
BDAD39F8
3E67A3DC
BDAC27D8
3CF87520
BCF60BE0
3E50C864
3D35A460
BE5E3E98
3DBA6308
BE5031EC
3E4F8524
3CE10AE0
3D888DE8
3C908860
3DAD7378
3E2A0CB0
BE7285E8
BE552404
BE63A9E4
3E3C31F0
BE175244
3E0EB494
3DF0A700
BE6448E0
3DEDB6B0
BE2CBE8D
3E3038D5
BE0B6EFD
3DACED08
3DA8262A
3E79B34D
3E148AF5
3E6698A2
BE1135EC
BDC1D1AF
BE5EE8A9
BC4AFBC2
BE94C52F
BE4E2C38
3E0295B8
BDCDC257
BDDBF1D8
BD51C564
3D4FE500
3B9200C9
BD86B38E
3BA269F1
BE991DF3
BDD72E67
3CB43090
BE8628BF
3DC0BDFC
3E18F9A8
3E5BE21C
3E648D37
BE4DE4F8
BE4C6695
3DD89008
BD840BE0
BE48F2BC
3BF19580
3E5069D0
3B1C7B00
3E0601B4
BDCC60D8
BE5D2A14
3BBC3A00
BC7B6D00
3E6BD254
BE53A798
BDE81FF8
3D00D110
BE4D0D30
3DDDD7C0
BE191E48
BE0B1910
3E0C65B8
BD9D5F00
3D1277F0
3DEB5FB0
BE1E20A4
BE4DA0EC
BE64F1DC
3E71BFAC
BE30D0B8
3E17D178
3D0C88C0
3DAF17E8
BE17B200
BE037A57
3E14515C
BE7BCCF6
3B8A525B
3E0F7B0C
BDF1854E
3E83F6FD
3DEAF5A9
3E77AB54
BD46C6DE
3E4CF7B4
BE53A22A
BD977149
BD496FAD
3E175F78
3E36FC3E
BD6D84A7
BDD323AC
BD6AB080
BE0136C6
3E074101
3D422532
BD1C6094
BE11407F
BDBC352E
BD8D9077
BE822190
BE0420BC
BAD106A0
3D93899C
3AD14E00
BE9E0CD7
3E94EEFF
3E690103
3E551089
3D9C510D
BC01D084
3E2CD461
BDA0DFD7
3EE11956
BE25577E
3DCF5307
BE4934EC
BD428390
3E172933
BCBC03BB
3E30FEBC
3D6DCA40
BD5E8E89
3E096B23
BD9469F8
BE898891
3E67D010
BE6E6D06
3E4F8F0B
BD08863D
BE3D3542
3C919708
BC08B77B
3E0E1D73
BD5443A9
BE8E7AAA
3E008D48
3E199952
BD730882
BE86BB4A
BE2D1E1D
3E35E22E
3C92D2BE
BE745954
3D482BB9
BE369AA0
3DAAA34E
3DE21F93
3E63EC4E
3D1E3947
BE5B14B3
3E711CB3
BC8CEB00
BD8FEEF0
3ED5A422
BD0755C6
3D8D7838
BE56E1DA
BE256DEE
BE297EAB
BED9CB2D
BE910098
BDF31E96
BED364A2
3DB093BF
BE3A6F7C
BE1C053D
BD062275
3D89D9E0
3C46417B
BDF2EA10
BE437B8C
BC509EC0
3DF95EE8
BDCA78D0
BE5FBFAC
BE4B8ADC
BE029E50
3E193E2C
B8DF6000
BE240DE4
3E505330
3E1B05C4
BE5F2CE8
BDB1A860
3E0EC2AC
3DE54D50
3DF76998
BD7A7AC0
BDA13FB0
BE494918
3D5662F0
3DE40F20
BC904600
3CF7CFA0
3E5D0164
BE2C6F64
3E4D9598
BE172B20
BE1866E8
3E400DD4
BE43B4EC
3BFD1480
BE1659FC
BE36102C
3E60392C
BE764624
BE5DCB54
3D68B570
BD09A930
BE1C6C8C
3CA179C0
BE6CB278
3CA451C0
3DC0F1C8
3DE433A8
BCBCBE40
3E69CA70
BE22CB58
3D5DED80
BE19A73C
BD927B20
3DA91980
BE59DDB0
BE22DD00
3D442F70
3C7FBF00
BE47D750
BBEB1D80
3B9E6100
BDEBA8F0
3D2ED0D0
BDE81068
3E2309A8
BE7091C0
3CE3723C
3DA4CEA2
BD0C2C20
3DA6D212
BD8ED215
BE3CFC78
BD090B72
BDE58A41
BE2808C3
BE7A0740
BC33EE00
3D58E3C0
3E6FD0D1
BD08A720
BE32E888
BE612602
BE09C6DB
BDCB50E0
3E2D7B2C
BE4DA775
3E5CB274
BE16E680
BDA75B5C
BDAFA2F0
BDE12088
3D15CA78
BA5F7400
BE0F269D
3DD0060C
3DFACEE8
3DE68120
3E00FA47
BE25D231
BE04242E
3DCE93B0
3DF00A10
BE4D114C
3CEE81AD
BE132664
3DCBBB78
3DD3CB38
3D1946B0
BDD66300
3E01F6A4
3E3392E8
3D8F5870
BDFA7A50
BDBE0AA0
3D236650
BE2B44BC
BC67FE40
3DB9EF5E
3B719600
BE49F5EC
BCE6F6D7
3D7F0180
BE18A75E
BC3D6C39
3E78FB78
3E145648
3DE2FBA8
BE0815A4
BDD786EA
3C86E2E0
BE699748
BDA035C0
3D18B310
BE44C2AC
BC8A5280
BE4A32B0
3E2DED98
BE21E764
BD7B4D60
BC41CA80
3D62F950
BDCB7B20
BD6A60A0
BDF23E20
BE443518
3D223AB0
3E510530
3D3A6E70
3E079628
3CF45820
3C6F2B40
BDB96240
BDAAC760
BE7DE584
3E13ED60
3E630DA4
3E31C2FC
3DBFF400
BE04A660
BC5FB7C0
3E7C2C68
3E83D486
3E729737
3CF63040
BDAA94C4
3C24F0F8
BD49D2F0
BE7C941C
3ED13E80
BE347937
3E401E58
BDFFFEF3
3D4A1E40
BE21AD51
BE58D040
BD55C3B0
BE241937
BC69C2B9
3C82DBBC
3E73A4B4
BB36D493
3E134375
BDCF496F
BDB5F9E9
3E30DD80
3E038365
BE0B1004
3E748DFF
3E07299D
BE4F4FC6
BEAC93A5
BE1F608C
3E3E3198
3DEA3FB6
3E12825C
BE4FCD9F
BDB83668
3E1FD005
BE01ECA3
3D711802
BA148420
BE2FFCBF
3E7BF1CC
BE2B4E6C
3D5DB17D
3D91CDE0
BE33252B
BA9CAC00
3D6279B4
BE423414
BE16529C
3E33CCA8
BE785A35
3E368E9D
BE1E34D8
BE09868D
3E0690D3
BDF80230
BC15AECC
3DAF3231
BDC23358
3C6AF38E
BDC81F06
3CDE7D00
BE69626F
3D80E1CC
3D3F68B1
3B0B02B3
BD804457
3C838C6D
3E0D64E4
3E8D204D
3DB78768
BDE73F28
3D29CA17
BE1F7FF4
BDAED702
3E11DBE0
3E73CB97
BE50C980
3DC123B0
3E2D5FA6
BDE252CB
3E26B2D4
3D63B6F3
3D9B4270
BE6EF53B
BE0D419C
3E06CAD3
3D8F64FD
BDF96E18
3E1D77CC
BE7F3320
3E6CECC9
3E81753B
BE7AD8F4
3E390FE7
BE06210F
3E17E2D2
3E435544
3D886930
BE4161BC
3DC6CEE9
3D8DEBEC
BCD6E21E
3E138FF0
BC9C5B40
BDFE2BCA
BE5ABEBF
BDEDF438
3E69C94B
3E67A694
3E6100D0
BE3E1844
3D82FDE0
BD9D00B8
3CE76589
BE39C6E1
3DBC9138
BD80D326
BD51BF07
BC4D95DC
3D6E83AF
BE507B08
3E71242C
BDBBA696
3DA6E48A
BDF742D8
3DA5B813
BEAD3F77
3E16E8A0
BEF1E764
BD509FBE
3DA3F974
BE6AF1E9
3EC4972A
BE7A5B3D
3ECEFD29
3DBEEFB0
3EA51C03
3DE5AA6A
BC443219
BE815C2F
BE077CBC
BF509FE0
3F3089DD
3E2A0FB9
BDAA7878
3DAAB7E4
BE3DC60B
3B8C2919
BD9861CE
3B75D0F5
3DF92075
BF2DC656
BC8B123A
BE10489C
3DAC4FA8
3ED875AB
3DA19E00
BEB28888
3E488055
3C8A4076
3E92DD27
BE6F619B
3E4026EB
BDAE1110
BE3019CF
3EAA5367
BE36A1AF
3D33A380
BD8A1603
3CB53480
3DC2B26E
BD077950
BE1EB1DC
3E70EDA7
BE4F8A96
BDC63FE6
BE5CF550
3D7F90CB
3E82F8EA
BD7BCD4A
3D53E575
BDEC9317
BE0A350B
3DA059F0
BE3B3351
BE457B38
3E3C282E
3CABE7A9
BE34E094
3CA04039
3E6CF65C
3DB6521A
3E88B448
3E121026
3E864295
3D2291B8
BE0DA697
3EA0FA2F
3E6E36B9
BE09CDC9
BDB3E980
BE6307A7
BE194FD5
3DB6D560
BD793BA0
BE5CB295
3DCAAF83
BDC95638
BDF91C08
BE4F9ED4
3E680C66
3E3C1FF2
BD9A7E14
3E03C7FD
3E817700
3ABD658A
3E29B62D
BE35B444
3E79390D
3DB50659
BE2A9EF4
3DA79E1B
3DEE04B6
3E2DD83D
3E924EAF
BC8E35C8
BD096A3F
BE74315C
BEA0AD1D
3EAD505A
BDCA444F
BE9738E4
BE137EE1
BD3D4374
BE4D1777
BD83A23C
3E77F290
BE66D233
BEEFC70F
3DEC5319
BE42366C
3CC83B31
BE1E61D0
BE823AD1
BE4B24E2
3EB3D682
BE9BD514
3E9312EE
3EA8AAFA
BE74069D
BE20B32A
BD750F3D
3CE7D1E0
3E02E72F
3E1EDEA7
BF1D6136
3E0297A9
3E67C438
3F841945
BC6903C0
BE0C8DD7
BF043497
3E376CA6
BE324E76
BE439BB8
3AC0F800
BE4B2B48
3E67D1F8
3E6CC8BC
3ED3573A
3D323A00
3E37AD5F
BDCBB430
BDC5F790
BE1E5983
3E772CC8
3ECF112C
3DD690C3
BD784820
BE0FA044
BF86DDE8
BE66C466
BF552148
3D38B09A
3E55B73C
BE5D7EA7
BE2ABE96
BE35BFE6
3D55B089
3B3C575C
3D11BB42
3D9CF8DF
3E9D0433
3DDDFCEF
BDDF15E6
BE8B0DAB
BE87CE93
3D4FDC90
3D411FB0
3E09E3F0
BE759F00
3E847ACA
BDB59F89
3E31333E
3E5F5988
BC72FC69
3E5B2C58
BD8858F0
3E7D06BB
BEC3B512
BD296243
BDE5EBE5
BD83FE57
BD5AF01C
3C082EE4
BD688FCD
BE777538
BE8EB498
3C7FB675
BDB1F843
3EADCC13
3E5E77E4
3E762E5D
3E721A30
BD144D41
3ED1402C
3D4AB131
BD249E23
BE93C1A9
3E28478C
BE521992
3E5FC500
BA8ADE00
3CCB9229
BCE06E94
BDCC81BC
BDF82F68
BD9AF27A
3E10127D
BDA3C515
BE070627
BE45E158
BE673D23
3E826B87
BDE8C03B
3E187793
BE5B5645
BE255F9A
3E50CEC8
BD99256D
3DCAF858
BDD26E54
BDA3BF3C
BE201A51
BD29BB63
BE11412A
3D9C18FB
3E20071F
3E836DED
BD07FB16
3D8E0CCA
BE3AF51B
BDCC5C9B
BE7817B0
BE562EF0
BECDF431
BC8ED905
3D68B6AD
3D900520
3DEE0EBF
BCA212E1
BD911A3D
BDDB9012
BE614A01
3D938D5B
BE5E7850
3DF0E118
BD243310
3E86DC5E
3E5E9313
BD420BE0
BE9FAB95
BE85E3B4
3DC3D74F
3D95F4D1
BDA0BD5C
3D6C7EAC
BDC07DEA
BE07C582
3E36C639
3B58338F
BE099010
3B68F42D
3E3EE3D3
BDD0837B
BE03082B
3E102D48
BE0FF5BC
BE4E2D12
BC1637DC
3DB734D0
BD70BB11
BED968A3
BE897916
3E3C9023
3E150B6B
BDF840C6
3F2F6144
3E943A59
BE2D905F
BDAAD3FD
BEC1877C
BE274C30
3E903F19
BDBFEB3C
3E88F386
3EAD537A
BC27AF0C
BD49EA12
3D9594A0
3E4FC770
3E7DC8D3
3DAAA987
BE2D078E
BE94F484
3CA5F052
BE8F6DC0
BD88C2E9
BE4477FC
BEA68E79
BEAB25FC
BE841F48
BE193FC4
BE3F706C
BE3266EE
BD5C6853
BD6212A2
3E90639B
BDD2C3F4
3C443C97
BE01A855
BCC926A8
BD4BBE94
BEAF7E46
BE47F6D8
BC955724
BD3C25A5
BE3D79F8
3DB3A195
BE0D4C9A
BE0392B0
BE773C5C
3E8ECDB4
BE054A74
BE0F7CC5
3E0E1AE0
3E10EBA5
BD288F09
3D4D8C96
3C68145A
3E3C2114
BDADF423
3DAD3434
3D04E11E
3C8A8E40
BD4E13C6
3C618959
3E0E7CCE
BE5FF836
BE9B2E2F
BCE94736
BEE2633C
BE41D6E4
BCE6EDC5
3CDEA30F
3E820BD6
BD4D8650
BEF7F037
3DFA79AA
BD969E0A
BE4B93ED
3E5D65A8
3C096A35
3D645520
BD249CC0
3E765B0D
BDE07938
3E27EC04
3E41E510
BE5FD670
3E0B5604
3D97A080
3E4649F8
BE2EC690
BE24F144
BE0EFB32
3E1B41E4
BE12E59C
BDB61503
3DAE3568
3CD21BF4
BDD67DDF
BDB6C250
BC963830
3DCBC600
3DA0B718
BE17DEBC
BD02F8D0
3DECEB50
3E8BBD3D
3E102B77
BD7BF49E
3DB70F42
3CB129A0
BD56091F
3E71B6EC
BDE4EEBE
BE27DB67
BDC96038
BE4CE8BA
BD8E4F10
BCFFDCA0
3D9737F0
BD5AB0E0
BDF6FEB8
3D8EAFB0
BC9A9A40
BE81D3D2
3DEAFDA8
3CAA8020
BE40165A
3E499540
3D8E80E4
3E42ABD3
BE6C7C8C
BE4EA215
BDD0F76F
BE607B40
BD6DAE53
3E59E0A4
BE7954BC
3C8E3163
3E6F2C05
BE21C738
BE3C1ADE
3BC02980
3C97D8D1
3E60634B
BE2C8239
3D876412
BAC5D8BB
BDECBE43
3E3AD46D
BE3A00C6
3DB80A08
BE754730
BE750AC8
3E4B5B04
BE6E6387
3CB0D41F
BE2BB300
BB9BC00D
BE04D7E6
BDCEB6F8
BDA1FD39
BE72A01B
3DC10E59
BD98A0DD
3E0A189E
3CE47E60
BDEE4C1B
3D836EEF
BDB3EBF8
BE3EE5FF
BDE1B0ED
3E1E5860
BCB2E9A6
3D7B3530
BC68AAD0
3E3811B0
BDFC6801
3DD24EB9
BDBF5203
3D9E57B0
BD444D80
BC433900
3D036AD0
BC5EA8C0
3E52FBEC
3DEC80C0
BE62B50C
3E585234
3E2E77D8
BDF261F0
3C0711CB
3E6BE190
BE44DF35
BDF06480
BE0426EC
3CC2A8F6
3D0AAFFA
BD20E2B0
BE152195
3CC03748
BDDFC738
BD319E40
BE4CEE2E
BE4CF7B6
BE2A42EE
3C822BA5
BD93CB0B
3E58AA8E
3DA767BB
3DDC70F7
3E6618CC
BE30F629
BD26DD24
3D4371E0
BD8DC12D
BE82522B
BD341F40
3E256625
3D5B50CA
BE0B7418
BC8C5780
3D891DC9
3EB70A56
BD4A64C1
3E20CEB4
3DC1C1DD
3E6B3E08
3E08F35B
BE7B30FE
BE74E406
3D90AC00
BDCB76A4
BE565BD4
BE67394E
3CECA25F
BC25D368
BDE511D0
3E4E2300
BE3E321A
BE5C8D45
3E2DE5A8
3E4B22F7
3E0211EB
BD359C9A
3DB0CE96
BE7EC8FC
3E1048D0
BDE5EB5D
3E205974
BB391800
BE2C06D0
3DDA8248
BE5969A8
3E1697E8
3DC2912D
3E0D79A4
BE46E32C
BDF13E83
BE108F4C
3E402A00
3DAE97FA
BE446BEC
BDC9C659
3E6082C3
3E4AABAC
3CFD25B9
3E759CB4
BDDFA3EA
3D8929DF
BE249BC7
3EA3A333
BE4F36F5
3DEDE5ED
3E3DD0C3
BE2B99FE
BE1A0759
BE882D9F
3D260810
3D9C7023
BD704E0D
3C6F5440
BE556203
BD96905D
3BF4025F
3CDFF400
3DF52FEC
3EAB105F
BD667EAE
3E600EE9
BDF08841
BD76AACB
3E0F2187
BDF62DA0
BE1E0F63
3E182E04
3D4312EC
BE5069B8
BDE1CB2F
3E54934A
BDA89696
3DD06628
BCCF9BE3
BD3855D5
BE3BA725
3E556740
3E6767B6
BE09B857
BE969A10
BCE305A7
BE062688
BE6D3813
BDC4CF69
3E338960
BE5C7177
3E7FA9DB
BE7726CC
BE706254
BE22F8AD
3DDA583D
BD2CD926
BDF7A99B
3DFAC706
3E4B891F
3E7B677C
3D87BC8D
3D2F3F05
3E067823
BDBF36B5
BCA967C0
3DA3C23D
BE62FB3B
3D6AAB25
BDC5F7DB
BDC49B80
3DEE7D67
BD718556
3E0D2F9C
3E7AEEBE
3E38081B
BE171474
BDBBE0A8
3D7D4774
3E777144
3D6FF628
BD8483C8
BA388000
BC36CE00
3E3F7486
3DE0D098
BE753109
BC87C955
3E2DEA70
3E7A2008
3DDF4FAB
BD5E39F0
BE34CA9C
BD385B9F
BE7A62F8
3E004F98
BE3F3D5F
3C6E2540
BDEFA94C
BE17C3F2
3DC2F115
3D31FF21
BE4479C0
3CC2F322
3D198B7B
BDB26504
BD1381F7
3DFCEE10
BE653BCC
BB6C3CFA
3E68F903
BB92EA00
BC5BA723
3E1D18A8
B98EE800
BE29E7B8
3E63131F
BE6AABCC
BDB1CACB
3E0242AA
3E6C08F8
3E6034AC
3DD36F81
3E0E2144
BE32E711
3AABCE6E
3E1B98D4
3D94203D
BD0F2ECA
BDF306F8
3CB90710
BD38CDAE
3DD80085
3E0B2E4D
BDB8D700
BE6FAA25
BE14CB60
BE07E19C
BE4839A5
3B9D7079
3D641FC0
BE0A5BE4
3E384C14
3DB5FA40
3E4A4740
BDEDFFA0
BE0FEAD8
3E1401F4
3E524D2C
3D347B00
3D095290
3E1F8CDC
BDFE7578
BDB5BC00
BD5B6A20
BE09C724
3DE02440
BE76B157
BBFD5680
3DE1656C
3DB16492
3DB7AA50
3DF27DA8

