BDE4268A
BDBAE74F
BEA26CE7
BED815D3
BEDA1693
BDC948B0
3DABEDCD
BE8AEFE8
3E1F57E7
BECBD3CC
3EDE30C4
3DA98DC0
BDBC3210
BD7116A0
3E95070D
BF420AB2
3E917406
BF0B11DF
3ED9F58B
BD65227F
3EADBE00
3C10F799
3EBF9ECA
3F0F0AEA
BF3E8924
BE61174F
BE76B1AF
BE82FE8B
3ED58484
BC3EB880
3F09F27C
BE0F5F93
3E623D14
3EDCD602
BF000C8A
BDDAC625
BDD95029
3D24155E
3F0CDEFC
BCD37364
BEB5BFBC
BE8C92D4
BECA6C48
3EE583E4
BEB8EA0C
3EE8E47C
3EFAA2AC
BEB81B94
3CB3746F
3E3F5D0F
BE9BC8AC
3EBE12B0
3EDD8319
BEAFF10F
BD155152
3DEB7102
BE183C24
3F037591
3E3FC1EA
3E4A6048
BEAC4110
BE2D337A
BEA2BEEB
3EC5D763
BE6AFA00
BE5BEF48
BEFF5E6C
3DBF63E0
3D8BE680
BE48D130
BEB1C4BC
3E9E23A0
BEB93063
BF49B196
3EBD9F87
BE3352C2
3E2F9F4E
BECA0312
3F071BF8
3E19F219
BC0A7A7E
3ED5E10B
3C546500
BE83BF70
3EA3771B
3C36D3BD
BC287C23
BEA9C1F8
BCBFDAEA
BEF3C4DC
3E84DE37
BEA8BC90
BDC59867
BE856C74
BE7F2A46
3EDAA89F
3E0374D2
BF26A586
BEA2208A
3E57F869
BE39E798
3DA72DEB
3ECB0D81
3CCE668A
BD8C5BEB
BEEB2FDD
BE333748
BEED9D84
3EDCC934
3E8BD198
3EB8D1FD
3EB101F7
3EB6CA52
BEA06FAE
BEC7A114
3DAC2200
3EBA74AA
3E362088
3F013C78
BE811874
3E3EA7B8
3EAEA564
BDDC1400
3E8E6BE4
BECDB1A0
BE5BAA08
BE5C61F0
3ECCE4A0

