3E6BD866
BEA2BFCE
3EA4F19D
3CEA0B25
3DB56F11
BE8FF95E
3E71AEAD
3E7BF988
3DC1F1FC
3D5F7D87
3E8991DD
3E5ED9E8
BE5896CD
BE7FD7FB
3E864176
BE8E0E86
BEA77674
BF236D77
BE83D3CB
BE2F9A95
BD44DC3F
3DF242E0
3E18BB66
3E4605A6
BE1D52E7
BE621E7C
3D1DEB1B
BDC4E7C8
BE94A335
3EACBB64
BE903FFA
BE8DAE88
BEC1498E
BE90BF71
3F15441E
BE2C28E5
3EB7DBC1
BE25CCE1
BE4E1B1D
3E4AE35B
3DDAB3D4
BDAEBE29
3DA44E50
3CCA405E
3BCBD352
3E09AD1B
BEA9752C
3A858E00
3E82B764
BDCFFE84
BE678EF2
BDBFE119
BDD6CC10
BDB0A644
3E7B0E76
BDBFED31
BD9CB220
BE82A8F8
3E4FFD8E
BE73B683
3E940DF1
3E3A155E
3E3EE602
BCF09890
3E19B954
3DC1036A
3EABA960
3E38A404
3DEAF326
BE342F83
3E806F56
3D3B3375
BD94572C
3DB36C13
3E004F41
BD4F0DD5
BE4C8251
BE23B39E
BE985053
BE9408D8
3E6C29F4
BDF8D740
3DB835FE
BD812AC0
3E580890
BE3C6D4D
3EAABE8E
3D9A8BD3
BE025311
BE4A913A
BE606162
3E739116
3BF91D11
3E583A2A
BE5C9A97
BE9F2A1C
3E9446B2
3E3FE4FA
3C73CB1A
3EB560AE
BDBA4E8C
3DCC2F48
BE00B517
BEC837F9
BDA82C60
3E5E771F
3D7D4E9C
BE2C2B16
3EABB180
BEA50A40
BDA9D641
3D75F6E0
3E9CEF4D
BE6B688A
3E5FA233
3D6A5541
3EA5D322
3DBCFDB4
BD929A8C
3EAF8D95
BDC94A18
BCB56C32
BE9721A8
BC442C27
3E80E285
BE287E0C
3E11BD5B
BE5EC790
3F026662
3C865F21
BE4B2696
BE343E62
3EA45B7C
BE99CB16
BE8ABC9E
BEB63529
3ADC8500
3D8A18D3
3EAD1A10
BE25877E
3CFFC86C
BE82CFDD
3E8FFD7B
BDEFB9AA
3D7DD742
3E2F4B8A
3E99BA79
BBF18D40
3DEC2F50
3E86895B
3E94478B
BE68131E
BE0300ED
3C3EBD6C
BE3380E7
3E8F5878
BE132277
BE39F9CF
3A348793
3EAB35B5
BE894587
BF19BD8F
BD55C582
BF1CFBC2
BE985A7E
BE959205
BDE8B6B3
3E3A8B8C
3E1DB21E
BE30F75E
BE84795A
3E459F7A
BF08500D
3E927BB0
3E5EB635
BEAEFDFD
BE3FA733
3D99F1AC
BCB5FEBB
3D9B77F4
BD6954F1
BE9869A5
3E3B4DC8
3E93D2FF
3E83563D
3E144E05
BEB1FA6D
BE3CC6EA
3E8AD880
3E2FC71C
BE979A1C
3E02E0E8
BDEFD43B
BD47ECFE
BD28A14B
BDF81EB3
3E1F4F9C
3E9B1C23
BEA77494
BD8A7725
BE404B56
BE9ACD6D
BE851846
BEA481EC
3E78114B
BEA26A5D
3EAD039D
BEB4C55D
BDAF4F59
BC3A4CE0
BE930188
3E98CC19
3E45DCBF
3D785C08
3E12F8B9
BD214AD9
BDE2F362
BE6562DD
BD400645
3B77A674
BD844C4A
BEA1CAC0
BDE5FA1F
3E57557A
3E70D6EE
3E8206B3
3CC54940
3DA0F030
BE4C9333
BC475E40
BD3CB270
3E036014
3E183FD2
BDFA2E3E
BE94E32D
BE99BB88
BD38A0E0
3CFF78B0
BE7B8716
3EA77859
3C938D75
BC8BB13B
3D8431F8
BDC7A604
3B3A1552
3E4A4B2E
BDD80E3E
BDD41DCD
3E2921AE
3E9C6C10
BE438BA5
3E8AC538
BD75132C
BDA135C0
BE23B106
3E697016
3E2C4857
3EEF48CE
BF3D932B
3E9377E4
BE901F2B
3E1BFB7E
BE57307B
BED018B3
BE8ED144
BF1C0FAA
3E43CBAA
BF178D68
BEB596BC
3EAA263B
3DCD253C
BE2742FC
BE823D4A
BE827696
3E6B5339
3EA0F7DD
3DD8F364
3D82AD94
3E6C0CB9
3DAEB184
3DDAC17C
3E8C7A42
3E502FE1
3E6BA9EB
3D3132B7
3E041097
3D619A68
BD81DEF8
BEB11320
3DED8D70
3DC2198C
3E084676
3E769332
3D4C04F0
3D4C1208
BE40870B
3D8AC434
BE0B2BD7
3E5FB43E
3E069140
3D2FE8F8
BDEBD9AE
3EB127D9
3D6198D8
3EAD9219
3EAAFE82
3EAD46B2
BEA222EF
BC0D42B5
3BC02A40
3E2B8F9D
3E3505B1
3E1A3A76
3EB56228
3BF0492A
3E553FAE
BD066ECD
BCB02149
BE1E896D
BE7B861E
BDC9801C
3EB03404
3E8B423C
3E39132A
3E06A39B
BD223848
BDCC457D
3E583681
BE557DB8
3E367C1F
3DDA912E
3EBD04FC
3E9E40F5
BD891A70
BE1AA387
3E414C32
3E034830
3E2A741D
3E90FCEA
3DB9254A
3CDDD968
3E2921A2
3E95C68B
BE40306D
BE8C1674
3E42F971
3B146480
BDEF3C0D
BD2DBC61
3DA61874
3E8C49CF
3E8D98E1
3DD3C0DB
3E200204
BD33AE71
BDAF759A
3E85FCE2
3EB1C29B
3A9952D8
BEFBFF41
BDA628AC
3DA20389
3E066E0C
BEEC48FC
3EBF6BDB
BE5F89EE
3E848009
BE8AA24C
3D677E7E
3E0C36D0
BD941B9D
BF37B4C2
BE1228B3
BDF3E05C
3E8F98A2
3E5C89A1
BDAF5E78
BF425E97
3E774E4C
BEEEF7DF
BED0B39A
BD6FCAB9
3CA82D95
BDE02678
3F00B935
3EC9CDB2
BE73D409
3DAF2A58
3CDEDD50
BD1DA3D0
3D035938
BF06E0B6
3D6A5CE0
3D3DD162
BE8464E6
BDF57B34
BDD8FC44
3E591EBA
BDCA64A6
3E72E5F2
3DE39C88
3DA79FC2
BF1DD38A
BD4C84F4
3F4DF6F7
3BC75E40
BE52A636
BEE7B26A
BEA722B6
3D79E0E5
BEAF34C4
BF0D1288
BEA7AC98
BE2562BA
BB9F4040
3D7752C8
BE8FCF4A
BE284A44
BEC54C24
BEF009F3
3D4AAE90
3DE06564
BEB8F460
3ED8FA55
BDAE6408
BE7F7DD3
BEB1A86B
3E4AF5E7
BDA60C3E
3DC3359B
3D48DD54
BE83255A
BDAF59DB
BE8A0735
3DEBADA1
BE7CA4AC
3EA8133D
3E994475
BD5D2C10
3E991E1B
3E4F7BEA
3E9BBC89
BE424A39
BE2B209A
3D8B39C4
3EA899A1
3E90FCF3
3DCC19F0
3E4C555F
3E929672
BE319398
3E0277AD
3E67D78A
BE9C3AE3
BE80E22E
3D267C87
BDD4FCDE
3E91162D
BE81584C
3DF2C0A1
BE1F0BBE
3DD8C474
BE9717ED
BD280930
3F0D3548
3F3840DE
BEA82411
3C47486A
BD8FC454
BE8A3F8C
3E361078
BF0EF8F8
3C493FC0
BEAB6D17
BEA5EB60
BF2C6948
3E844E86
3E838CB8
3E2C2041
BDB88E94
BE1CADAE
3DF6DC40
BDA69D34
3CB98F70
BDE20F7A
3E9BE805
3DD292B8
BD9E76AC
3E30F4D2
BEAB0CD0
BD933A90
BE149740
3E7A7FFE
BE220638
3E1F67FE
3EB0AE27
BE151C94
BD035795
BD6ABC89
BECFBC8B
3DF92090
3DAF0028
BE886997
3CBF31A5
BEA1F5EF
BF5D80B4
BE661945
BED79F22
BED569D3
BE8CBE81
3E846D8D
BE91E5B6

