BFC17D79
3FA0CB38
BFA9B159
BF836B13
3EBEC354
BE598861
3EFF979A
3F1E4440
BE81DCF7
3E991A3C
BFCB17AD
3E7DAD41
3EF45215
BD8ECAF0
3F24452D
BE078C61
3DFDA863
3F19C94F
BEC54942
3EBB0566
3E82108D
BE1AEACA
BE9D8AE7
BD015169
BD5AF99C
BE8F0847
3E9AE545
BEA88C8B
3E5FC511
BD3BC7C6
BF39B64C
3DD0F970
BEA4EC5E
BFCEA300
3F989556
BEA6129F
3EB0086B
3F8C51F7
3F1FEA94
BE754B6E
3F11A21E
3ED33AEC
BEDB8CCA
3E62DD67
3EA359B6
3E35D477
BE40FBD3
3E8747B2
3F00F0AC
BF22419E
3F2BCB7B
BE87CAC0
BDAD89AD
BE47B6D3
3F312822
3EF32285
3F004EA1
3EAC8817
BE861C65
3EA8BC07
3EE95FED
3E441936
3D71A5FC
3E037C53
BEA1972C
BF94CBC1
3F8F5075
BF5F334A
BE524051
3F9A402A
3F1CF6B3
BE10F174
3F24C10C
3E9AAFAD
3E2408B7
3E8A75EB
3EB7C102
3E3A6B5C
3DC15EBD
BE068B66
3ECD60A3
BECB8969
3E4BA951
3E93C7CD
3EB7B3F7
BE7CA0C7
BDB57925
3E06071E
3E42AC1A
3ECD8838
BE6C8AB7
3E807A2E
3D9FB3D9
3E5C0FCE
3E4FAE9B
3EA1FAD1
3F7EFFAE
BF9840C7
3D297799
3E905F7E
3E998E82
BED4F9E9
3E073401
3DA099B3
BDD3F56E
3D578BDC
BEA872A9
3E2F2F56
BC0A4DEB
BF35BD2C
BE185FA1
BECDF4A9
BDE5BC17
BFC843FA
BF8F235B
BF8807F8
BEBD5987
3D063477
3ED8B7E2
3E8A31BB
BB099745
3F6414A8
3E9D22C4
BECB2C57
3EF57321
3F1DB78B
3F7FA852
BE904BD6
3E8AAFA1
BEA61AD8
3E611B47
BE3D2F83
BE7A0B73
BE9B8FBF
BCD293EA
BE88F634
3E02D8E6
BE0008B1
BBF759C0
BEACCD3E
3E87EC6B
BE829B1E
BE89AE51
BEC11C57
BE608F0E
BDFE69FC
BD1AE3E8
3CB72D04
3E4139B4
BE2E803C
BEBBFD31
BE170378
BD6EC96C
BE51DBB2
BE612B10
BD2425AB
BDC30900
BD8D28BB
3D8FBEA0
BC40E800
BFD2EF56
3F6A70CD
BF20AAF9
C00D3AFB
3EAA33F7
BF043EEE
3B824816
3FAD6C89
3C4C74B4
3F0E40ED
BF3EFE16
3EE770D6
3E31A029
3F20C8A4
3F301010
3F513CD3
3E74C770
3F4A22FE
3ECC4511
3F345E31
3E4FCCF9
3E2D3639
BE206530
3CBB186C
3F0D05B8
BFD85162
BD768A92
3CA734B9
3E99B364
3D971C48
BFA62D62
3F3C3CBD
BE430B2D
3E8EFC07
BECA5622
3D006DCA
3E865B25
BDB6A0AA
BEBA4AE5
BE56A886
BEB58B69
BDFFD054
BEBD5BE8
BD5DF22F
BE359A24
BD963775
3E51129E
3E43E071
BE070FC6
3E716509
BEB6B4CA
BE3A6853
3DBAEE8B
BE6B3F2D
3D301063
3C83051B
BD18CB20
BED5D13C
3BA37C22
3E8304A5
3E332435
BDB6384A
BEBD0153
BE03260B
BFDE1B86
BF2BDFC3
3F67AE04
BFFD275D
3F08D66C
3F21D2DB
3DBB7297
3E732C23
BDF16B36
3E9357FB
BF7B1C44
3EBB969E
3C7AF54E
3E6A9B39
3F2CE9A9
3F09CA35
BE634102
3E92B93E
3F181545
3F1745CF
BE186E04
3B6FA62C
3EDAA91C
3E83A59F
BCA17CF5
BF1A4726
3DCF81FE
3EF69CA0
3EE2B867
3EFE54B7
BF537698
3F26649E

